{
  "0": "\u0000",
  "1": "\u0001",
  "2": "\u0002",
  "3": "\u0003",
  "4": "\u0004",
  "5": "\u0005",
  "6": "\u0006",
  "7": "\u0007",
  "8": "\b",
  "9": "\t",
  "10": "\n",
  "11": "\u000b",
  "12": "\f",
  "13": "\r",
  "14": "\u000e",
  "15": "\u000f",
  "16": "\u0010",
  "17": "\u0011",
  "18": "\u0012",
  "19": "\u0013",
  "20": "\u0014",
  "21": "\u0015",
  "22": "\u0016",
  "23": "\u0017",
  "24": "\u0018",
  "25": "\u0019",
  "26": "\u001a",
  "27": "\u001b",
  "28": "\u001c",
  "29": "\u001d",
  "30": "\u001e",
  "31": "\u001f",
  "32": " ",
  "33": "!",
  "34": "\"",
  "35": "#",
  "36": "$",
  "37": "%",
  "38": "&",
  "39": "'",
  "40": "(",
  "41": ")",
  "42": "*",
  "43": "+",
  "44": ",",
  "45": "-",
  "46": ".",
  "47": "/",
  "48": "0",
  "49": "1",
  "50": "2",
  "51": "3",
  "52": "4",
  "53": "5",
  "54": "6",
  "55": "7",
  "56": "8",
  "57": "9",
  "58": ":",
  "59": ";",
  "60": "<",
  "61": "=",
  "62": ">",
  "63": "?",
  "64": "@",
  "65": "A",
  "66": "B",
  "67": "C",
  "68": "D",
  "69": "E",
  "70": "F",
  "71": "G",
  "72": "H",
  "73": "I",
  "74": "J",
  "75": "K",
  "76": "L",
  "77": "M",
  "78": "N",
  "79": "O",
  "80": "P",
  "81": "Q",
  "82": "R",
  "83": "S",
  "84": "T",
  "85": "U",
  "86": "V",
  "87": "W",
  "88": "X",
  "89": "Y",
  "90": "Z",
  "91": "[",
  "92": "\\",
  "93": "]",
  "94": "^",
  "95": "_",
  "96": "`",
  "97": "a",
  "98": "b",
  "99": "c",
  "100": "d",
  "101": "e",
  "102": "f",
  "103": "g",
  "104": "h",
  "105": "i",
  "106": "j",
  "107": "k",
  "108": "l",
  "109": "m",
  "110": "n",
  "111": "o",
  "112": "p",
  "113": "q",
  "114": "r",
  "115": "s",
  "116": "t",
  "117": "u",
  "118": "v",
  "119": "w",
  "120": "x",
  "121": "y",
  "122": "z",
  "123": "{",
  "124": "|",
  "125": "}",
  "126": "~",
  "127": "",
  "128": "�",
  "129": "�",
  "130": "�",
  "131": "�",
  "132": "�",
  "133": "�",
  "134": "�",
  "135": "�",
  "136": "�",
  "137": "�",
  "138": "�",
  "139": "�",
  "140": "�",
  "141": "�",
  "142": "�",
  "143": "�",
  "144": "�",
  "145": "�",
  "146": "�",
  "147": "�",
  "148": "�",
  "149": "�",
  "150": "�",
  "151": "�",
  "152": "�",
  "153": "�",
  "154": "�",
  "155": "�",
  "156": "�",
  "157": "�",
  "158": "�",
  "159": "�",
  "160": "�",
  "161": "�",
  "162": "�",
  "163": "�",
  "164": "�",
  "165": "�",
  "166": "�",
  "167": "�",
  "168": "�",
  "169": "�",
  "170": "�",
  "171": "�",
  "172": "�",
  "173": "�",
  "174": "�",
  "175": "�",
  "176": "�",
  "177": "�",
  "178": "�",
  "179": "�",
  "180": "�",
  "181": "�",
  "182": "�",
  "183": "�",
  "184": "�",
  "185": "�",
  "186": "�",
  "187": "�",
  "188": "�",
  "189": "�",
  "190": "�",
  "191": "�",
  "192": "�",
  "193": "�",
  "194": "�",
  "195": "�",
  "196": "�",
  "197": "�",
  "198": "�",
  "199": "�",
  "200": "�",
  "201": "�",
  "202": "�",
  "203": "�",
  "204": "�",
  "205": "�",
  "206": "�",
  "207": "�",
  "208": "�",
  "209": "�",
  "210": "�",
  "211": "�",
  "212": "�",
  "213": "�",
  "214": "�",
  "215": "�",
  "216": "�",
  "217": "�",
  "218": "�",
  "219": "�",
  "220": "�",
  "221": "�",
  "222": "�",
  "223": "�",
  "224": "�",
  "225": "�",
  "226": "�",
  "227": "�",
  "228": "�",
  "229": "�",
  "230": "�",
  "231": "�",
  "232": "�",
  "233": "�",
  "234": "�",
  "235": "�",
  "236": "�",
  "237": "�",
  "238": "�",
  "239": "�",
  "240": "�",
  "241": "�",
  "242": "�",
  "243": "�",
  "244": "�",
  "245": "�",
  "246": "�",
  "247": "�",
  "248": "�",
  "249": "�",
  "250": "�",
  "251": "�",
  "252": "�",
  "253": "�",
  "254": "�",
  "255": "�",
  "256": "<|endoftext|>",
  "257": " t",
  "258": "he",
  "259": " a",
  "260": " s",
  "261": " w",
  "262": "nd",
  "263": " the",
  "264": "ed",
  "265": " b",
  "266": " to",
  "267": " and",
  "268": " h",
  "269": " f",
  "270": "in",
  "271": " T",
  "272": " wa",
  "273": "re",
  "274": "it",
  "275": "ou",
  "276": " d",
  "277": " l",
  "278": " c",
  "279": " p",
  "280": "ay",
  "281": " m",
  "282": "er",
  "283": " was",
  "284": "om",
  "285": " The",
  "286": " he",
  "287": "is",
  "288": " n",
  "289": "ar",
  "290": "on",
  "291": "ll",
  "292": " sa",
  "293": "id",
  "294": "im",
  "295": " ha",
  "296": " S",
  "297": "ot",
  "298": " g",
  "299": "ing",
  "300": "at",
  "301": "an",
  "302": "en",
  "303": "le",
  "304": "or",
  "305": "am",
  "306": "ir",
  "307": "et",
  "308": " H",
  "309": " it",
  "310": " They",
  "311": " th",
  "312": "ig",
  "313": "il",
  "314": " in",
  "315": " pl",
  "316": " He",
  "317": " \"",
  "318": "ow",
  "319": "ri",
  "320": "ver",
  "321": "ut",
  "322": " u",
  "323": " play",
  "324": "es",
  "325": " r",
  "326": "ith",
  "327": " said",
  "328": "pp",
  "329": " with",
  "330": " o",
  "331": "On",
  "332": " day",
  "333": "oo",
  "334": " y",
  "335": "ked",
  "336": " her",
  "337": " I",
  "338": " She",
  "339": " st",
  "340": "ld",
  "341": " be",
  "342": " his",
  "343": "ce",
  "344": " Tim",
  "345": "ke",
  "346": " e",
  "347": "nt",
  "348": " big",
  "349": "ck",
  "350": " you",
  "351": "very",
  "352": "un",
  "353": " on",
  "354": "end",
  "355": " happ",
  "356": " L",
  "357": "all",
  "358": "ve",
  "359": "ily",
  "360": " not",
  "361": " do",
  "362": " li",
  "363": "riend",
  "364": "her",
  "365": " friend",
  "366": " they",
  "367": "ad",
  "368": " up",
  "369": " had",
  "370": " we",
  "371": " want",
  "372": " M",
  "373": " of",
  "374": " B",
  "375": "st",
  "376": "itt",
  "377": "se",
  "378": " happy",
  "379": "'s",
  "380": "ent",
  "381": " saw",
  "382": "One",
  "383": "ould",
  "384": " very",
  "385": " so",
  "386": " mom",
  "387": " for",
  "388": " that",
  "389": " sh",
  "390": "ittle",
  "391": "ch",
  "392": " little",
  "393": "ound",
  "394": " she",
  "395": " tim",
  "396": " nam",
  "397": " time",
  "398": " ne",
  "399": ".\"",
  "400": " k",
  "401": " Lily",
  "402": " sm",
  "403": " there",
  "404": " named",
  "405": " were",
  "406": "!\"",
  "407": " but",
  "408": "The",
  "409": " bo",
  "410": " wanted",
  "411": " Tom",
  "412": "el",
  "413": " is",
  "414": "ved",
  "415": " It",
  "416": " friends",
  "417": "out",
  "418": "ht",
  "419": " an",
  "420": "ird",
  "421": "al",
  "422": "ome",
  "423": " went",
  "424": " too",
  "425": "ug",
  "426": " wh",
  "427": " bird",
  "428": "ry",
  "429": "ide",
  "430": "Once",
  "431": " lo",
  "432": "ake",
  "433": " hel",
  "434": " all",
  "435": " loo",
  "436": "ter",
  "437": " help",
  "438": " upon",
  "439": " toy",
  "440": "ue",
  "441": "ill",
  "442": " did",
  "443": "ra",
  "444": " fun",
  "445": "get",
  "446": " as",
  "447": " j",
  "448": "ore",
  "449": "ame",
  "450": "ur",
  "451": " dog",
  "452": "ind",
  "453": " A",
  "454": "gether",
  "455": " re",
  "456": "ly",
  "457": " se",
  "458": " at",
  "459": " ba",
  "460": " together",
  "461": " tre",
  "462": " cat",
  "463": "ic",
  "464": "ted",
  "465": "ax",
  "466": " ro",
  "467": " their",
  "468": "ood",
  "469": " could",
  "470": " are",
  "471": " ball",
  "472": "ec",
  "473": "ark",
  "474": " fr",
  "475": " can",
  "476": "way",
  "477": "ain",
  "478": " him",
  "479": " played",
  "480": " go",
  "481": "?\"",
  "482": " them",
  "483": "ard",
  "484": " kn",
  "485": " sad",
  "486": " Max",
  "487": "'t",
  "488": "hed",
  "489": " le",
  "490": " gir",
  "491": " man",
  "492": " girl",
  "493": "other",
  "494": "um",
  "495": " boy",
  "496": "hen",
  "497": "ul",
  "498": " tree",
  "499": " have",
  "500": " star",
  "501": " cl",
  "502": " out",
  "503": "my",
  "504": " back",
  "505": " loved",
  "506": " looked",
  "507": " found",
  "508": "hing",
  "509": "oug",
  "510": "one",
  "511": " sc",
  "512": " Sue",
  "513": " sp",
  "514": " park",
  "515": " car",
  "516": " me",
  "517": "omet",
  "518": " like",
  "519": "are",
  "520": "round",
  "521": "ful",
  "522": "ong",
  "523": "own",
  "524": " la",
  "525": " Sam",
  "526": " bec",
  "527": " liked",
  "528": "side",
  "529": "ell",
  "530": " would",
  "531": " see",
  "532": " say",
  "533": " But",
  "534": "elt",
  "535": " started",
  "536": "op",
  "537": " no",
  "538": " ag",
  "539": " fa",
  "540": " felt",
  "541": "ight",
  "542": " somet",
  "543": " came",
  "544": " new",
  "545": " asked",
  "546": " One",
  "547": "pot",
  "548": "You",
  "549": "ared",
  "550": "ob",
  "551": " al",
  "552": "ouse",
  "553": "est",
  "554": "ings",
  "555": " W",
  "556": " small",
  "557": "iled",
  "558": "ought",
  "559": " mad",
  "560": " other",
  "561": "ice",
  "562": "ried",
  "563": "ook",
  "564": " good",
  "565": "ia",
  "566": " br",
  "567": " smiled",
  "568": " away",
  "569": " Spot",
  "570": "ss",
  "571": " make",
  "572": "ag",
  "573": " something",
  "574": " made",
  "575": " put",
  "576": " wor",
  "577": "dd",
  "578": " Ben",
  "579": " from",
  "580": " what",
  "581": " find",
  "582": " home",
  "583": " ran",
  "584": "uc",
  "585": " wal",
  "586": "ened",
  "587": " ex",
  "588": " thought",
  "589": "arn",
  "590": " again",
  "591": " co",
  "592": " J",
  "593": " playing",
  "594": "ak",
  "595": " sw",
  "596": " mu",
  "597": " laug",
  "598": " every",
  "599": " down",
  "600": " fl",
  "601": " house",
  "602": " says",
  "603": " around",
  "604": " toys",
  "605": " fe",
  "606": " some",
  "607": "ile",
  "608": " box",
  "609": "ish",
  "610": "if",
  "611": "ty",
  "612": "ach",
  "613": " took",
  "614": " scared",
  "615": " sun",
  "616": " my",
  "617": " learn",
  "618": " F",
  "619": "ure",
  "620": "ucy",
  "621": ",\"",
  "622": " then",
  "623": " Mia",
  "624": " things",
  "625": " look",
  "626": " lot",
  "627": "uck",
  "628": "ny",
  "629": " will",
  "630": " when",
  "631": "pped",
  "632": "ret",
  "633": "oth",
  "634": " You",
  "635": "ick",
  "636": "ble",
  "637": "oud",
  "638": " lived",
  "639": "ep",
  "640": "ap",
  "641": "ie",
  "642": " pu",
  "643": " know",
  "644": " your",
  "645": "qu",
  "646": " pr",
  "647": "ust",
  "648": "ave",
  "649": " tried",
  "650": " D",
  "651": " ch",
  "652": "as",
  "653": "ally",
  "654": "Th",
  "655": " who",
  "656": " po",
  "657": "nder",
  "658": "ump",
  "659": "ited",
  "660": " Lucy",
  "661": " dad",
  "662": "Tim",
  "663": " got",
  "664": " more",
  "665": " kne",
  "666": " dec",
  "667": " v",
  "668": "au",
  "669": " hug",
  "670": "ant",
  "671": "Lily",
  "672": " get",
  "673": "ank",
  "674": " any",
  "675": " Bob",
  "676": " ab",
  "677": "�",
  "678": "ist",
  "679": " Mom",
  "680": "fter",
  "681": " red",
  "682": " bl",
  "683": " about",
  "684": " many",
  "685": " water",
  "686": " room",
  "687": " knew",
  "688": " best",
  "689": "ous",
  "690": " pret",
  "691": "ause",
  "692": " int",
  "693": "ers",
  "694": "They",
  "695": " learned",
  "696": " laughed",
  "697": "ise",
  "698": " exc",
  "699": " care",
  "700": " So",
  "701": "og",
  "702": " sl",
  "703": " eat",
  "704": " pic",
  "705": " op",
  "706": "ided",
  "707": " this",
  "708": " pe",
  "709": "fe",
  "710": " both",
  "711": " E",
  "712": "ite",
  "713": " gra",
  "714": " because",
  "715": " decided",
  "716": "ive",
  "717": " run",
  "718": " gre",
  "719": "urp",
  "720": " un",
  "721": " ho",
  "722": "ink",
  "723": " And",
  "724": "ess",
  "725": " one",
  "726": " became",
  "727": " feel",
  "728": " ke",
  "729": "ace",
  "730": " bu",
  "731": " jump",
  "732": "udd",
  "733": " told",
  "734": " mo",
  "735": "ara",
  "736": " show",
  "737": "ways",
  "738": "Yes",
  "739": " always",
  "740": " outside",
  "741": " sor",
  "742": " rock",
  "743": " excited",
  "744": " long",
  "745": " ta",
  "746": " inside",
  "747": "Tom",
  "748": " into",
  "749": "Wh",
  "750": " str",
  "751": " fish",
  "752": " am",
  "753": " tow",
  "754": " under",
  "755": " each",
  "756": "urpr",
  "757": "iny",
  "758": " fast",
  "759": " gave",
  "760": " sk",
  "761": " nice",
  "762": " surpr",
  "763": " much",
  "764": "sed",
  "765": "ged",
  "766": "our",
  "767": " sorry",
  "768": "ven",
  "769": "ised",
  "770": " than",
  "771": "lew",
  "772": " tur",
  "773": " need",
  "774": " old",
  "775": "imal",
  "776": " animal",
  "777": " didn",
  "778": " walk",
  "779": " just",
  "780": "But",
  "781": " hand",
  "782": "ff",
  "783": "ack",
  "784": " walked",
  "785": " sn",
  "786": "by",
  "787": "ft",
  "788": " happened",
  "789": " or",
  "790": " clo",
  "791": "etter",
  "792": "here",
  "793": " cle",
  "794": "ro",
  "795": " pretty",
  "796": " fly",
  "797": "ase",
  "798": " try",
  "799": " tr",
  "800": " en",
  "801": " kind",
  "802": " near",
  "803": " stor",
  "804": " book",
  "805": " how",
  "806": " fi",
  "807": " wat",
  "808": "ine",
  "809": "ion",
  "810": " list",
  "811": "ched",
  "812": " We",
  "813": "gry",
  "814": "ge",
  "815": "lor",
  "816": " take",
  "817": " ca",
  "818": "igh",
  "819": " animals",
  "820": "ate",
  "821": " cake",
  "822": "bb",
  "823": " better",
  "824": "ving",
  "825": " sky",
  "826": " dan",
  "827": "urt",
  "828": " ide",
  "829": " if",
  "830": " never",
  "831": " its",
  "832": " lots",
  "833": " flow",
  "834": "nn",
  "835": " tw",
  "836": " let",
  "837": " idea",
  "838": " bear",
  "839": " C",
  "840": " food",
  "841": " Th",
  "842": "rom",
  "843": "oll",
  "844": " mag",
  "845": " His",
  "846": "\n\n",
  "847": " love",
  "848": " by",
  "849": " share",
  "850": "ort",
  "851": "ople",
  "852": "eci",
  "853": "more",
  "854": " anymore",
  "855": " heard",
  "856": "udden",
  "857": " flew",
  "858": " turn",
  "859": " com",
  "860": " te",
  "861": " don",
  "862": " color",
  "863": "ecial",
  "864": " special",
  "865": " people",
  "866": " clean",
  "867": " Every",
  "868": "pec",
  "869": "pl",
  "870": " qu",
  "871": "rm",
  "872": "uddenly",
  "873": " door",
  "874": " bug",
  "875": "uff",
  "876": "Mom",
  "877": " surprised",
  "878": "ream",
  "879": "ex",
  "880": " fam",
  "881": " careful",
  "882": " Sara",
  "883": " come",
  "884": " fore",
  "885": " end",
  "886": " even",
  "887": " Her",
  "888": "nna",
  "889": "Thank",
  "890": " ra",
  "891": " ground",
  "892": " far",
  "893": "row",
  "894": " still",
  "895": " over",
  "896": " hugged",
  "897": " hurt",
  "898": " frog",
  "899": "No",
  "900": " loud",
  "901": " doll",
  "902": " dra",
  "903": "kay",
  "904": " read",
  "905": "ves",
  "906": "Let",
  "907": " picked",
  "908": " magic",
  "909": " high",
  "910": " shiny",
  "911": " gl",
  "912": " pa",
  "913": " wind",
  "914": " thanked",
  "915": " after",
  "916": " Then",
  "917": " family",
  "918": "em",
  "919": " tra",
  "920": " hard",
  "921": " bad",
  "922": " P",
  "923": "pected",
  "924": "iz",
  "925": "expected",
  "926": "arden",
  "927": " unexpected",
  "928": " mak",
  "929": " garden",
  "930": " clim",
  "931": "ool",
  "932": "lf",
  "933": "'m",
  "934": " climb",
  "935": "uffy",
  "936": "illy",
  "937": " off",
  "938": " cry",
  "939": " safe",
  "940": " opened",
  "941": "ild",
  "942": " bro",
  "943": "It",
  "944": " im",
  "945": " From",
  "946": "sh",
  "947": "As",
  "948": " proud",
  "949": " ever",
  "950": "xt",
  "951": "ummy",
  "952": "ane",
  "953": " tal",
  "954": " R",
  "955": " call",
  "956": " town",
  "957": " story",
  "958": " hat",
  "959": " app",
  "960": "ull",
  "961": " listen",
  "962": " while",
  "963": " should",
  "964": " kid",
  "965": " bea",
  "966": " In",
  "967": " unt",
  "968": " next",
  "969": " forest",
  "970": "lease",
  "971": " che",
  "972": " beaut",
  "973": " stay",
  "974": "orn",
  "975": " rain",
  "976": " jumped",
  "977": " blue",
  "978": " way",
  "979": " slide",
  "980": " cu",
  "981": "ip",
  "982": " give",
  "983": "be",
  "984": " until",
  "985": "ough",
  "986": "and",
  "987": "hes",
  "988": "ber",
  "989": " strong",
  "990": " kids",
  "991": " Sally",
  "992": "luffy",
  "993": " squ",
  "994": "iful",
  "995": " work",
  "996": " par",
  "997": " beautiful",
  "998": " Amy",
  "999": "oy",
  "1000": "ger",
  "1001": "dy",
  "1002": " stick",
  "1003": " K",
  "1004": "ct",
  "1005": " soft",
  "1006": " great",
  "1007": " flowers",
  "1008": " angry",
  "1009": " Let",
  "1010": " two",
  "1011": " smile",
  "1012": " now",
  "1013": " When",
  "1014": "age",
  "1015": " showed",
  "1016": " watch",
  "1017": " ask",
  "1018": "pt",
  "1019": " think",
  "1020": " everyone",
  "1021": " place",
  "1022": "ture",
  "1023": "Now",
  "1024": " where",
  "1025": " met",
  "1026": " has",
  "1027": "rew",
  "1028": "itty",
  "1029": "When",
  "1030": " sto",
  "1031": " imp",
  "1032": " lost",
  "1033": " happily",
  "1034": " catch",
  "1035": " Fluffy",
  "1036": "ma",
  "1037": "dded",
  "1038": "He",
  "1039": " called",
  "1040": " pain",
  "1041": " helped",
  "1042": " bre",
  "1043": " hear",
  "1044": "uit",
  "1045": " lea",
  "1046": "so",
  "1047": "ies",
  "1048": " picture",
  "1049": " de",
  "1050": " also",
  "1051": " warm",
  "1052": "irst",
  "1053": "Then",
  "1054": " open",
  "1055": "aybe",
  "1056": "az",
  "1057": "That",
  "1058": " Jo",
  "1059": " yell",
  "1060": " stopped",
  "1061": " green",
  "1062": " game",
  "1063": "oon",
  "1064": "lled",
  "1065": "ished",
  "1066": "Look",
  "1067": " hands",
  "1068": "ree",
  "1069": " yummy",
  "1070": " ad",
  "1071": " noise",
  "1072": " fell",
  "1073": "les",
  "1074": "ath",
  "1075": "isy",
  "1076": "ired",
  "1077": " sound",
  "1078": " lion",
  "1079": " sand",
  "1080": " pond",
  "1081": " nodded",
  "1082": "“",
  "1083": " having",
  "1084": " bed",
  "1085": "”",
  "1086": "unny",
  "1087": " kept",
  "1088": " keep",
  "1089": " sunny",
  "1090": " rem",
  "1091": "bbit",
  "1092": " mouse",
  "1093": " Wh",
  "1094": "vent",
  "1095": "rel",
  "1096": "oc",
  "1097": "fore",
  "1098": "Hi",
  "1099": " wo",
  "1100": " cars",
  "1101": " ate",
  "1102": "ange",
  "1103": " used",
  "1104": " store",
  "1105": " okay",
  "1106": " bra",
  "1107": " z",
  "1108": "th",
  "1109": "leep",
  "1110": "What",
  "1111": " mean",
  "1112": " Kitty",
  "1113": " Anna",
  "1114": "We",
  "1115": " hill",
  "1116": " dif",
  "1117": " couldn",
  "1118": "olly",
  "1119": " wr",
  "1120": " soon",
  "1121": " dr",
  "1122": "icy",
  "1123": "day",
  "1124": "air",
  "1125": "Can",
  "1126": " mon",
  "1127": " being",
  "1128": " talk",
  "1129": " sat",
  "1130": " mess",
  "1131": " draw",
  "1132": " before",
  "1133": "ray",
  "1134": "key",
  "1135": " tired",
  "1136": " use",
  "1137": " hole",
  "1138": " head",
  "1139": " cla",
  "1140": "ress",
  "1141": "reed",
  "1142": "ary",
  "1143": " us",
  "1144": "gan",
  "1145": " fix",
  "1146": " farm",
  "1147": " first",
  "1148": "joy",
  "1149": " sing",
  "1150": " ey",
  "1151": " duck",
  "1152": "led",
  "1153": "eet",
  "1154": "able",
  "1155": "She",
  "1156": " Now",
  "1157": "ught",
  "1158": "ning",
  "1159": "aisy",
  "1160": " yard",
  "1161": " mommy",
  "1162": " beh",
  "1163": "oral",
  "1164": "ox",
  "1165": " wait",
  "1166": " rabbit",
  "1167": " enjoy",
  "1168": " birds",
  "1169": "imes",
  "1170": "ied",
  "1171": " import",
  "1172": " flo",
  "1173": " face",
  "1174": " Do",
  "1175": " our",
  "1176": "ello",
  "1177": "Hello",
  "1178": " G",
  "1179": "ock",
  "1180": "man",
  "1181": " right",
  "1182": " “",
  "1183": "self",
  "1184": "After",
  "1185": " vo",
  "1186": " sleep",
  "1187": " friendly",
  "1188": " agreed",
  "1189": "ike",
  "1190": "fere",
  "1191": " worked",
  "1192": " walking",
  "1193": " smell",
  "1194": " important",
  "1195": " fruit",
  "1196": " fin",
  "1197": " eyes",
  "1198": " differe",
  "1199": "ting",
  "1200": "irrel",
  "1201": "Sam",
  "1202": " top",
  "1203": " squirrel",
  "1204": " here",
  "1205": "rious",
  "1206": " truck",
  "1207": " pick",
  "1208": " moral",
  "1209": "uch",
  "1210": " turned",
  "1211": " thing",
  "1212": " swing",
  "1213": " does",
  "1214": " different",
  "1215": " curious",
  "1216": " Jane",
  "1217": "’",
  "1218": "hn",
  "1219": " party",
  "1220": " bright",
  "1221": "ear",
  "1222": "ather",
  "1223": " real",
  "1224": " hop",
  "1225": " colors",
  "1226": "thing",
  "1227": "ser",
  "1228": "ail",
  "1229": " stop",
  "1230": " brave",
  "1231": "ollow",
  "1232": " tri",
  "1233": " race",
  "1234": " going",
  "1235": " cook",
  "1236": " bag",
  "1237": " own",
  "1238": "us",
  "1239": " laugh",
  "1240": " forg",
  "1241": " ri",
  "1242": "ember",
  "1243": "cle",
  "1244": " trees",
  "1245": " shared",
  "1246": " song",
  "1247": " kit",
  "1248": " funny",
  "1249": " This",
  "1250": "kes",
  "1251": "ely",
  "1252": "ced",
  "1253": " shout",
  "1254": " feeling",
  "1255": " bunny",
  "1256": "stle",
  "1257": "Why",
  "1258": "At",
  "1259": " snow",
  "1260": " please",
  "1261": " others",
  "1262": " making",
  "1263": " follow",
  "1264": " cried",
  "1265": "iss",
  "1266": "ign",
  "1267": "chen",
  "1268": "Don",
  "1269": " tast",
  "1270": " kitchen",
  "1271": " jo",
  "1272": " grass",
  "1273": " brother",
  "1274": " began",
  "1275": "Wow",
  "1276": "Max",
  "1277": " tall",
  "1278": " sweet",
  "1279": " gi",
  "1280": " yellow",
  "1281": " tail",
  "1282": " pretend",
  "1283": " lad",
  "1284": " hot",
  "1285": " fav",
  "1286": " cold",
  "1287": "owl",
  "1288": "ott",
  "1289": " worry",
  "1290": " hun",
  "1291": " Can",
  "1292": "oom",
  "1293": "ndma",
  "1294": "Ben",
  "1295": " looking",
  "1296": " full",
  "1297": " cre",
  "1298": " con",
  "1299": " Mr",
  "1300": "Sara",
  "1301": " sho",
  "1302": " ru",
  "1303": " floor",
  "1304": " dance",
  "1305": " boat",
  "1306": " Dad",
  "1307": "ol",
  "1308": "ken",
  "1309": " voice",
  "1310": " expl",
  "1311": " behind",
  "1312": "zy",
  "1313": "uddy",
  "1314": " remember",
  "1315": " needed",
  "1316": " advent",
  "1317": "ation",
  "1318": " dis",
  "1319": " closer",
  "1320": " books",
  "1321": "ng",
  "1322": "bye",
  "1323": "aring",
  "1324": "aper",
  "1325": " sees",
  "1326": "orite",
  "1327": " train",
  "1328": " swim",
  "1329": " move",
  "1330": " favorite",
  "1331": " broken",
  "1332": "ass",
  "1333": " watched",
  "1334": "Suddenly",
  "1335": " ju",
  "1336": " fair",
  "1337": " Daisy",
  "1338": "ious",
  "1339": "Sue",
  "1340": " wet",
  "1341": " trying",
  "1342": " table",
  "1343": " pus",
  "1344": " ac",
  "1345": "ached",
  "1346": " night",
  "1347": " hid",
  "1348": " cut",
  "1349": " All",
  "1350": "ppy",
  "1351": "asure",
  "1352": " looks",
  "1353": " fire",
  "1354": " wood",
  "1355": " makes",
  "1356": " hungry",
  "1357": " Buddy",
  "1358": " plan",
  "1359": " paper",
  "1360": " dir",
  "1361": " cou",
  "1362": " That",
  "1363": " Suddenly",
  "1364": " As",
  "1365": "ila",
  "1366": " sometimes",
  "1367": " repl",
  "1368": " leaves",
  "1369": " doing",
  "1370": " dark",
  "1371": " adventure",
  "1372": "Jo",
  "1373": " threw",
  "1374": " tell",
  "1375": " ready",
  "1376": " might",
  "1377": " helping",
  "1378": " build",
  "1379": "ins",
  "1380": " rest",
  "1381": " pulled",
  "1382": " mat",
  "1383": " left",
  "1384": " gr",
  "1385": " gone",
  "1386": " del",
  "1387": " Joe",
  "1388": "pe",
  "1389": "So",
  "1390": " tak",
  "1391": " ste",
  "1392": " slow",
  "1393": " running",
  "1394": " quick",
  "1395": " prom",
  "1396": " moment",
  "1397": " clapped",
  "1398": "where",
  "1399": "onely",
  "1400": "eb",
  "1401": " stuck",
  "1402": " reached",
  "1403": " lonely",
  "1404": " goodbye",
  "1405": " another",
  "1406": "ster",
  "1407": "Mia",
  "1408": " pat",
  "1409": " less",
  "1410": " close",
  "1411": "ient",
  "1412": "ect",
  "1413": " why",
  "1414": " wall",
  "1415": " pi",
  "1416": " pen",
  "1417": " bott",
  "1418": " Timmy",
  "1419": "zz",
  "1420": "vy",
  "1421": "iced",
  "1422": "ater",
  "1423": "ac",
  "1424": " swam",
  "1425": " dream",
  "1426": " break",
  "1427": " bit",
  "1428": " bike",
  "1429": " alone",
  "1430": "bbed",
  "1431": " wag",
  "1432": " thank",
  "1433": " grow",
  "1434": " din",
  "1435": " bigger",
  "1436": " ice",
  "1437": "ix",
  "1438": "ered",
  "1439": " waved",
  "1440": " surprise",
  "1441": " set",
  "1442": " replied",
  "1443": " paint",
  "1444": " monkey",
  "1445": " mar",
  "1446": " hold",
  "1447": " butter",
  "1448": " been",
  "1449": " amaz",
  "1450": " air",
  "1451": "outh",
  "1452": "Anna",
  "1453": " ride",
  "1454": " mouth",
  "1455": " cra",
  "1456": " Jack",
  "1457": " creat",
  "1458": "'re",
  "1459": " tiny",
  "1460": " seen",
  "1461": " silly",
  "1462": " rocks",
  "1463": " quickly",
  "1464": " name",
  "1465": " nest",
  "1466": " glad",
  "1467": " flower",
  "1468": " fight",
  "1469": " enjoyed",
  "1470": " coming",
  "1471": " Everyone",
  "1472": " After",
  "1473": " underst",
  "1474": " lady",
  "1475": " join",
  "1476": " done",
  "1477": " cool",
  "1478": "Okay",
  "1479": " white",
  "1480": " shouted",
  "1481": " per",
  "1482": " listened",
  "1483": " broke",
  "1484": " ar",
  "1485": "ries",
  "1486": "rough",
  "1487": " pot",
  "1488": " climbed",
  "1489": " Fin",
  "1490": "sic",
  "1491": "rot",
  "1492": "Her",
  "1493": " wonder",
  "1494": " through",
  "1495": " pushed",
  "1496": " only",
  "1497": " music",
  "1498": " mix",
  "1499": " lesson",
  "1500": " fall",
  "1501": " danced",
  "1502": " dro",
  "1503": " colorful",
  "1504": " chair",
  "1505": " balloon",
  "1506": "ucky",
  "1507": "ph",
  "1508": "avy",
  "1509": "This",
  "1510": " tower",
  "1511": " touch",
  "1512": " reach",
  "1513": " likes",
  "1514": " key",
  "1515": " wants",
  "1516": " block",
  "1517": " bel",
  "1518": " apple",
  "1519": "room",
  "1520": "oney",
  "1521": "eddy",
  "1522": "ash",
  "1523": " spl",
  "1524": " light",
  "1525": " held",
  "1526": " giant",
  "1527": " gent",
  "1528": " butterf",
  "1529": "ower",
  "1530": "der",
  "1531": " waited",
  "1532": " rel",
  "1533": " pictures",
  "1534": " noticed",
  "1535": " job",
  "1536": " hopped",
  "1537": " hair",
  "1538": " grabbed",
  "1539": " gu",
  "1540": " buy",
  "1541": " bus",
  "1542": "ton",
  "1543": "ner",
  "1544": "lc",
  "1545": " word",
  "1546": " someone",
  "1547": " shap",
  "1548": " cloud",
  "1549": " castle",
  "1550": " baby",
  "1551": " bath",
  "1552": "lla",
  "1553": "Do",
  "1554": " spot",
  "1555": " land",
  "1556": " grandma",
  "1557": " dri",
  "1558": " dress",
  "1559": " anything",
  "1560": " arm",
  "1561": " wrong",
  "1562": " wished",
  "1563": " must",
  "1564": " throw",
  "1565": " stu",
  "1566": " explore",
  "1567": " There",
  "1568": " Momo",
  "1569": "ze",
  "1570": "ord",
  "1571": "Spot",
  "1572": "Oh",
  "1573": "In",
  "1574": " won",
  "1575": " heavy",
  "1576": "os",
  "1577": "art",
  "1578": " poin",
  "1579": " perf",
  "1580": " mother",
  "1581": " forgot",
  "1582": " farmer",
  "1583": " ele",
  "1584": " drag",
  "1585": " comp",
  "1586": " child",
  "1587": " blew",
  "1588": " Maybe",
  "1589": "red",
  "1590": "mb",
  "1591": " world",
  "1592": " treasure",
  "1593": " sea",
  "1594": " mail",
  "1595": " juice",
  "1596": " followed",
  "1597": " flying",
  "1598": " everywhere",
  "1599": " cow",
  "1600": " butterfly",
  "1601": "pping",
  "1602": "edal",
  "1603": "ance",
  "1604": " window",
  "1605": " wish",
  "1606": " vis",
  "1607": " sec",
  "1608": " pink",
  "1609": " gif",
  "1610": " fairy",
  "1611": " dragon",
  "1612": " cream",
  "1613": " brought",
  "1614": " bor",
  "1615": " asks",
  "1616": "rayon",
  "1617": "orm",
  "1618": "adow",
  "1619": "John",
  "1620": " woods",
  "1621": " whe",
  "1622": " stayed",
  "1623": " rob",
  "1624": " pol",
  "1625": " crayon",
  "1626": " blocks",
  "1627": "Maybe",
  "1628": "Lucy",
  "1629": " three",
  "1630": " sit",
  "1631": " bottle",
  "1632": " Soon",
  "1633": " Bobo",
  "1634": " Billy",
  "1635": "que",
  "1636": "less",
  "1637": "ized",
  "1638": " win",
  "1639": " plant",
  "1640": " fill",
  "1641": " dinner",
  "1642": " crying",
  "1643": " button",
  "1644": " Z",
  "1645": "ield",
  "1646": "ames",
  "1647": " treat",
  "1648": " thinks",
  "1649": " swings",
  "1650": " start",
  "1651": " robot",
  "1652": " pull",
  "1653": " pass",
  "1654": " pig",
  "1655": " happen",
  "1656": " faster",
  "1657": " fur",
  "1658": " eating",
  "1659": " dirty",
  "1660": " Tommy",
  "1661": " talked",
  "1662": " sure",
  "1663": " hit",
  "1664": " deep",
  "1665": " cont",
  "1666": " cand",
  "1667": " What",
  "1668": " owl",
  "1669": " O",
  "1670": "oop",
  "1671": "enny",
  "1672": " yog",
  "1673": " year",
  "1674": " visit",
  "1675": " turns",
  "1676": " stand",
  "1677": " runs",
  "1678": " really",
  "1679": " pet",
  "1680": " games",
  "1681": " free",
  "1682": " dry",
  "1683": " wise",
  "1684": " understand",
  "1685": " tasty",
  "1686": " tight",
  "1687": " rolled",
  "1688": " round",
  "1689": " promised",
  "1690": " paw",
  "1691": " leaf",
  "1692": " fox",
  "1693": " fit",
  "1694": " el",
  "1695": " drink",
  "1696": " bite",
  "1697": " Mommy",
  "1698": " Lila",
  "1699": " Inside",
  "1700": " Bl",
  "1701": "ub",
  "1702": "nts",
  "1703": "de",
  "1704": " welc",
  "1705": " strange",
  "1706": " ph",
  "1707": " hor",
  "1708": " else",
  "1709": " closed",
  "1710": " carrot",
  "1711": " Le",
  "1712": "ross",
  "1713": "ead",
  "1714": "His",
  "1715": "Bob",
  "1716": " snack",
  "1717": " secret",
  "1718": " sis",
  "1719": " prin",
  "1720": " gift",
  "1721": " cup",
  "1722": " bran",
  "1723": " bee",
  "1724": "ued",
  "1725": "set",
  "1726": "othes",
  "1727": "iet",
  "1728": "ella",
  "1729": "eces",
  "1730": "ebook",
  "1731": "bo",
  "1732": "ast",
  "1733": "While",
  "1734": "\".",
  "1735": " well",
  "1736": " wings",
  "1737": " spicy",
  "1738": " scary",
  "1739": " sign",
  "1740": " rope",
  "1741": " remembered",
  "1742": " quiet",
  "1743": " pieces",
  "1744": " notebook",
  "1745": " lake",
  "1746": " dolls",
  "1747": " clothes",
  "1748": "itting",
  "1749": "ctor",
  "1750": " yes",
  "1751": " finished",
  "1752": " apples",
  "1753": "oup",
  "1754": "itten",
  "1755": "issed",
  "1756": "!”",
  "1757": " spin",
  "1758": " smo",
  "1759": " sister",
  "1760": " shapes",
  "1761": " sharing",
  "1762": " orange",
  "1763": " mine",
  "1764": " few",
  "1765": "urn",
  "1766": "ming",
  "1767": " welcome",
  "1768": " vill",
  "1769": " smart",
  "1770": " shin",
  "1771": " puzz",
  "1772": " leave",
  "1773": " laughing",
  "1774": " hide",
  "1775": " count",
  "1776": " caught",
  "1777": " John",
  "1778": " At",
  "1779": " ve",
  "1780": "unch",
  "1781": "una",
  "1782": "pper",
  "1783": "iver",
  "1784": "fu",
  "1785": "emy",
  "1786": "co",
  "1787": "amp",
  "1788": "aught",
  "1789": "Just",
  "1790": " without",
  "1791": " sear",
  "1792": " scream",
  "1793": " rec",
  "1794": " pudd",
  "1795": " delic",
  "1796": " To",
  "1797": " Em",
  "1798": "phant",
  "1799": "ocked",
  "1800": "From",
  "1801": " wra",
  "1802": " sitting",
  "1803": " side",
  "1804": " res",
  "1805": " fis",
  "1806": " elephant",
  "1807": " contin",
  "1808": " bar",
  "1809": " Blue",
  "1810": "une",
  "1811": "sw",
  "1812": "old",
  "1813": "eter",
  "1814": "chool",
  "1815": "cy",
  "1816": "ards",
  "1817": " twins",
  "1818": " today",
  "1819": " smiles",
  "1820": " smelly",
  "1821": " pie",
  "1822": " glass",
  "1823": " eng",
  "1824": " cute",
  "1825": " black",
  "1826": " buck",
  "1827": " answ",
  "1828": "ully",
  "1829": "orning",
  "1830": "igg",
  "1831": "fully",
  "1832": " singing",
  "1833": " sang",
  "1834": " perfect",
  "1835": " pare",
  "1836": " owner",
  "1837": " morning",
  "1838": " king",
  "1839": " horse",
  "1840": " corn",
  "1841": " cave",
  "1842": " able",
  "1843": " Bird",
  "1844": " Bella",
  "1845": "\n ",
  "1846": " teddy",
  "1847": " tap",
  "1848": " puzzle",
  "1849": " push",
  "1850": " monster",
  "1851": " mum",
  "1852": " min",
  "1853": " medal",
  "1854": " map",
  "1855": " huge",
  "1856": " himself",
  "1857": " filled",
  "1858": " di",
  "1859": " continued",
  "1860": "ich",
  "1861": "ible",
  "1862": "gerous",
  "1863": "ator",
  "1864": " wagged",
  "1865": " stories",
  "1866": " stre",
  "1867": " snake",
  "1868": " shr",
  "1869": " school",
  "1870": " purp",
  "1871": " pers",
  "1872": " ducks",
  "1873": " beach",
  "1874": " amazing",
  "1875": " Remy",
  "1876": "ost",
  "1877": "me",
  "1878": "irt",
  "1879": "gg",
  "1880": "fused",
  "1881": "ence",
  "1882": "ee",
  "1883": "box",
  "1884": " village",
  "1885": " shining",
  "1886": " puddle",
  "1887": " oven",
  "1888": " moved",
  "1889": " exp",
  "1890": " engine",
  "1891": " egg",
  "1892": " dogs",
  "1893": " dangerous",
  "1894": " bucket",
  "1895": " bowl",
  "1896": " att",
  "1897": " Ch",
  "1898": "stead",
  "1899": "ond",
  "1900": "not",
  "1901": "cing",
  "1902": "board",
  "1903": "bow",
  "1904": " snowman",
  "1905": " same",
  "1906": " rainbow",
  "1907": " rad",
  "1908": " puppy",
  "1909": " piece",
  "1910": " pre",
  "1911": " power",
  "1912": " nap",
  "1913": " je",
  "1914": " heart",
  "1915": " fisher",
  "1916": " field",
  "1917": " cannot",
  "1918": " cour",
  "1919": "ute",
  "1920": "rat",
  "1921": "itch",
  "1922": "cked",
  "1923": "ches",
  "1924": "bble",
  "1925": "ano",
  "1926": " worried",
  "1927": " river",
  "1928": " lunch",
  "1929": " kitten",
  "1930": " kite",
  "1931": " finally",
  "1932": " ban",
  "1933": " Leo",
  "1934": " Gra",
  "1935": " Bobby",
  "1936": "to",
  "1937": "sk",
  "1938": "sket",
  "1939": "ises",
  "1940": "irp",
  "1941": "ina",
  "1942": "Sally",
  "1943": "Fin",
  "1944": " track",
  "1945": " stone",
  "1946": " purple",
  "1947": " plane",
  "1948": " peace",
  "1949": " path",
  "1950": " nose",
  "1951": " magical",
  "1952": " miss",
  "1953": " living",
  "1954": " getting",
  "1955": " gentle",
  "1956": " fisherman",
  "1957": " fan",
  "1958": " ear",
  "1959": " dropped",
  "1960": " course",
  "1961": " candy",
  "1962": " bugs",
  "1963": " bell",
  "1964": " basket",
  "1965": "sy",
  "1966": "read",
  "1967": "isa",
  "1968": "ench",
  "1969": "Hey",
  "1970": " taking",
  "1971": " street",
  "1972": " sack",
  "1973": " match",
  "1974": " days",
  "1975": " creative",
  "1976": " Emma",
  "1977": "umb",
  "1978": "ugg",
  "1979": "rob",
  "1980": "ipped",
  "1981": "atter",
  "1982": " woke",
  "1983": " sounds",
  "1984": " scar",
  "1985": " realized",
  "1986": " patient",
  "1987": " parents",
  "1988": " flute",
  "1989": " doctor",
  "1990": " des",
  "1991": " Sarah",
  "1992": " Ella",
  "1993": "ren",
  "1994": "ract",
  "1995": "ined",
  "1996": "ilk",
  "1997": "eared",
  "1998": "ased",
  "1999": "ade",
  "2000": ".”",
  "2001": "'ll",
  "2002": " scarf",
  "2003": " suddenly",
  "2004": " roll",
  "2005": " roar",
  "2006": " jet",
  "2007": " inc",
  "2008": " grew",
  "2009": " feels",
  "2010": " enough",
  "2011": " drew",
  "2012": " carefully",
  "2013": " cir",
  "2014": " bathrob",
  "2015": " bri",
  "2016": " bench",
  "2017": " bark",
  "2018": " Thank",
  "2019": "tle",
  "2020": "squ",
  "2021": "llie",
  "2022": "lex",
  "2023": "ling",
  "2024": "izz",
  "2025": "gly",
  "2026": "ces",
  "2027": "bor",
  "2028": "ama",
  "2029": "akes",
  "2030": " words",
  "2031": " wear",
  "2032": " upset",
  "2033": " turkey",
  "2034": " prob",
  "2035": " past",
  "2036": " onto",
  "2037": " meet",
  "2038": " milk",
  "2039": " joy",
  "2040": " jog",
  "2041": " clap",
  "2042": " brown",
  "2043": " barn",
  "2044": "umpy",
  "2045": "squit",
  "2046": "squito",
  "2047": "pes",
  "2048": "lem",
  "2049": "itter",
  "2050": "imi",
  "2051": "iling",
  "2052": "arp",
  "2053": "anket",
  "2054": "aur",
  "2055": "Soon",
  "2056": "Please",
  "2057": "Of",
  "2058": " ugly",
  "2059": " trou",
  "2060": " shook",
  "2061": " sharp",
  "2062": " road",
  "2063": " problem",
  "2064": " phone",
  "2065": " most",
  "2066": " mosquito",
  "2067": " live",
  "2068": " leg",
  "2069": " last",
  "2070": " hig",
  "2071": " feather",
  "2072": " everything",
  "2073": " blanket",
  "2074": " bathrobe",
  "2075": " ant",
  "2076": "up",
  "2077": "unt",
  "2078": "thy",
  "2079": "port",
  "2080": "oun",
  "2081": "ose",
  "2082": "izza",
  "2083": "fish",
  "2084": "epend",
  "2085": "aughty",
  "2086": "alm",
  "2087": "St",
  "2088": "Mommy",
  "2089": "Finally",
  "2090": " trip",
  "2091": " stars",
  "2092": " shirt",
  "2093": " shadow",
  "2094": " seem",
  "2095": " rag",
  "2096": " prune",
  "2097": " pool",
  "2098": " neigh",
  "2099": " hope",
  "2100": " herself",
  "2101": " har",
  "2102": " comes",
  "2103": " branch",
  "2104": " acorn",
  "2105": "vel",
  "2106": "ssy",
  "2107": "pet",
  "2108": "ount",
  "2109": "ks",
  "2110": "getable",
  "2111": "estion",
  "2112": "era",
  "2113": "ey",
  "2114": "ere",
  "2115": "cess",
  "2116": "azz",
  "2117": "af",
  "2118": "Good",
  "2119": " vegetable",
  "2120": " tooth",
  "2121": " tea",
  "2122": " storm",
  "2123": " smelled",
  "2124": " slid",
  "2125": " shoes",
  "2126": " question",
  "2127": " mud",
  "2128": " mot",
  "2129": " mist",
  "2130": " late",
  "2131": " jam",
  "2132": " confused",
  "2133": " cover",
  "2134": " children",
  "2135": " carry",
  "2136": " carpet",
  "2137": " bush",
  "2138": " belong",
  "2139": " bone",
  "2140": " Molly",
  "2141": "ourn",
  "2142": "ndp",
  "2143": "ire",
  "2144": "ese",
  "2145": "erly",
  "2146": "ale",
  "2147": "OK",
  "2148": " zoom",
  "2149": " teach",
  "2150": " part",
  "2151": " pile",
  "2152": " nod",
  "2153": " journ",
  "2154": " higher",
  "2155": " grab",
  "2156": " forever",
  "2157": " forget",
  "2158": " fixed",
  "2159": " eas",
  "2160": " dead",
  "2161": " cher",
  "2162": " banan",
  "2163": " bake",
  "2164": " Jen",
  "2165": " Ducky",
  "2166": " Birdy",
  "2167": " er",
  "2168": "ove",
  "2169": "ndpa",
  "2170": "let",
  "2171": "irth",
  "2172": "ier",
  "2173": "erry",
  "2174": "amond",
  "2175": " years",
  "2176": " wheel",
  "2177": " shy",
  "2178": " soup",
  "2179": " poem",
  "2180": " inv",
  "2181": " instead",
  "2182": " holding",
  "2183": " hiding",
  "2184": " hats",
  "2185": " honey",
  "2186": " faces",
  "2187": " diamond",
  "2188": " cookies",
  "2189": " calm",
  "2190": " bread",
  "2191": " bring",
  "2192": " bow",
  "2193": " arri",
  "2194": " ign",
  "2195": " -",
  "2196": "ity",
  "2197": "ieve",
  "2198": "dge",
  "2199": "cil",
  "2200": "ang",
  "2201": "Lila",
  "2202": " wand",
  "2203": " tries",
  "2204": " tom",
  "2205": " takes",
  "2206": " square",
  "2207": " pencil",
  "2208": " noises",
  "2209": " missed",
  "2210": " landed",
  "2211": " lucky",
  "2212": " jar",
  "2213": " grumpy",
  "2214": " driver",
  "2215": " delicious",
  "2216": " daddy",
  "2217": " cheese",
  "2218": " amazed",
  "2219": " av",
  "2220": " Chirp",
  "2221": "mp",
  "2222": "izzy",
  "2223": "ize",
  "2224": "anger",
  "2225": "Amy",
  "2226": " write",
  "2227": " whole",
  "2228": " talking",
  "2229": " spray",
  "2230": " smooth",
  "2231": " such",
  "2232": " naughty",
  "2233": " messy",
  "2234": " money",
  "2235": " knocked",
  "2236": " hugs",
  "2237": " hoop",
  "2238": " drove",
  "2239": " drop",
  "2240": " dest",
  "2241": " cloth",
  "2242": " chew",
  "2243": " birth",
  "2244": "ung",
  "2245": "ountain",
  "2246": "isk",
  "2247": "erv",
  "2248": "any",
  "2249": "Be",
  "2250": "?”",
  "2251": " wonderful",
  "2252": " val",
  "2253": " tear",
  "2254": " stir",
  "2255": " puts",
  "2256": " press",
  "2257": " pizza",
  "2258": " motor",
  "2259": " mov",
  "2260": " life",
  "2261": " hoped",
  "2262": " gem",
  "2263": " father",
  "2264": " fake",
  "2265": " eras",
  "2266": " dirt",
  "2267": " dancing",
  "2268": " cookie",
  "2269": " coll",
  "2270": " clouds",
  "2271": " cri",
  "2272": " building",
  "2273": " answer",
  "2274": " With",
  "2275": " Please",
  "2276": " Mimi",
  "2277": " Finally",
  "2278": "uts",
  "2279": "unk",
  "2280": "uitar",
  "2281": "uce",
  "2282": "ors",
  "2283": "llo",
  "2284": "lderly",
  "2285": "iskers",
  "2286": "irit",
  "2287": "ieved",
  "2288": "fort",
  "2289": "ervous",
  "2290": "elp",
  "2291": "cket",
  "2292": "cc",
  "2293": "alk",
  "2294": "app",
  "2295": " yoga",
  "2296": " yelled",
  "2297": " wondered",
  "2298": " true",
  "2299": " swimming",
  "2300": " stranger",
  "2301": " stri",
  "2302": " spe",
  "2303": " pin",
  "2304": " nervous",
  "2305": " helpful",
  "2306": " guitar",
  "2307": " fil",
  "2308": " elderly",
  "2309": " disapp",
  "2310": " coin",
  "2311": " clock",
  "2312": " carried",
  "2313": " barked",
  "2314": " bicy",
  "2315": " Why",
  "2316": " Somet",
  "2317": " Mark",
  "2318": " Don",
  "2319": " Ann",
  "2320": "urned",
  "2321": "ular",
  "2322": "roy",
  "2323": "pect",
  "2324": "oof",
  "2325": "oman",
  "2326": "iting",
  "2327": "ery",
  "2328": "erri",
  "2329": "althy",
  "2330": "Stop",
  "2331": " waiting",
  "2332": " woman",
  "2333": " wip",
  "2334": " towards",
  "2335": " shoe",
  "2336": " searched",
  "2337": " sail",
  "2338": " sel",
  "2339": " promise",
  "2340": " pointed",
  "2341": " piano",
  "2342": " neck",
  "2343": " net",
  "2344": " march",
  "2345": " goes",
  "2346": " gently",
  "2347": " fighting",
  "2348": " fold",
  "2349": " explain",
  "2350": " destroy",
  "2351": " decor",
  "2352": " corner",
  "2353": " cleaned",
  "2354": " chased",
  "2355": " bicycle",
  "2356": " believe",
  "2357": " arms",
  "2358": " appeared",
  "2359": " anyone",
  "2360": " across",
  "2361": " icy",
  "2362": " ent",
  "2363": "urse",
  "2364": "umber",
  "2365": "ring",
  "2366": "otter",
  "2367": "essie",
  "2368": "cap",
  "2369": "amed",
  "2370": "Jack",
  "2371": "Help",
  "2372": " zip",
  "2373": " working",
  "2374": " wheat",
  "2375": " wis",
  "2376": " vegetables",
  "2377": " turtle",
  "2378": " thin",
  "2379": " teac",
  "2380": " tie",
  "2381": " terri",
  "2382": " string",
  "2383": " spirit",
  "2384": " sleepy",
  "2385": " sheep",
  "2386": " shop",
  "2387": " selfish",
  "2388": " sandw",
  "2389": " ser",
  "2390": " record",
  "2391": " person",
  "2392": " nothing",
  "2393": " note",
  "2394": " imag",
  "2395": " feed",
  "2396": " easy",
  "2397": " deer",
  "2398": " cheered",
  "2399": " bossy",
  "2400": " birthday",
  "2401": " band",
  "2402": " ash",
  "2403": " Whiskers",
  "2404": " Tiny",
  "2405": " otter",
  "2406": " es",
  "2407": " On",
  "2408": " No",
  "2409": "ually",
  "2410": "sp",
  "2411": "orrow",
  "2412": "lower",
  "2413": "ffle",
  "2414": "erest",
  "2415": "ert",
  "2416": "Dad",
  "2417": " vi",
  "2418": " trouble",
  "2419": " tomorrow",
  "2420": " touc",
  "2421": " toast",
  "2422": " taste",
  "2423": " tag",
  "2424": " stret",
  "2425": " seed",
  "2426": " screamed",
  "2427": " rude",
  "2428": " ret",
  "2429": " rh",
  "2430": " prince",
  "2431": " paws",
  "2432": " passport",
  "2433": " pun",
  "2434": " pract",
  "2435": " neighbor",
  "2436": " nearby",
  "2437": " mark",
  "2438": " ladder",
  "2439": " law",
  "2440": " feet",
  "2441": " dull",
  "2442": " creature",
  "2443": " change",
  "2444": " busy",
  "2445": " boun",
  "2446": " af",
  "2447": " Sometimes",
  "2448": " Polly",
  "2449": " If",
  "2450": " Bu",
  "2451": " Be",
  "2452": " '",
  "2453": "upp",
  "2454": "rn",
  "2455": "olin",
  "2456": "oot",
  "2457": "ilty",
  "2458": "iff",
  "2459": "gy",
  "2460": "eros",
  "2461": "den",
  "2462": "cks",
  "2463": "br",
  "2464": "ats",
  "2465": "ado",
  "2466": "My",
  "2467": "Later",
  "2468": " violin",
  "2469": " trump",
  "2470": " touched",
  "2471": " terrible",
  "2472": " teacher",
  "2473": " sword",
  "2474": " sticks",
  "2475": " splash",
  "2476": " songs",
  "2477": " snee",
  "2478": " slowly",
  "2479": " shake",
  "2480": " supp",
  "2481": " suc",
  "2482": " sque",
  "2483": " point",
  "2484": " peaceful",
  "2485": " painted",
  "2486": " pop",
  "2487": " pill",
  "2488": " ob",
  "2489": " myster",
  "2490": " longer",
  "2491": " interest",
  "2492": " ignor",
  "2493": " hidden",
  "2494": " hello",
  "2495": " guilty",
  "2496": " explor",
  "2497": " cheer",
  "2498": " comet",
  "2499": " boring",
  "2500": " banana",
  "2501": " bought",
  "2502": " bitter",
  "2503": " asking",
  "2504": " arrived",
  "2505": " along",
  "2506": " adventures",
  "2507": " act",
  "2508": " Together",
  "2509": " St",
  "2510": " Lisa",
  "2511": " Just",
  "2512": " Jerry",
  "2513": "yard",
  "2514": "rewor",
  "2515": "raid",
  "2516": "ness",
  "2517": "idge",
  "2518": "icken",
  "2519": "io",
  "2520": "eth",
  "2521": "cape",
  "2522": "Who",
  "2523": " yogurt",
  "2524": " watching",
  "2525": " wave",
  "2526": " vase",
  "2527": " trumpet",
  "2528": " treats",
  "2529": " splas",
  "2530": " spo",
  "2531": " sol",
  "2532": " shell",
  "2533": " sour",
  "2534": " relieved",
  "2535": " radio",
  "2536": " powerful",
  "2537": " plate",
  "2538": " movie",
  "2539": " mod",
  "2540": " measure",
  "2541": " matter",
  "2542": " lay",
  "2543": " lamp",
  "2544": " incred",
  "2545": " hears",
  "2546": " hairy",
  "2547": " forgive",
  "2548": " fear",
  "2549": " fence",
  "2550": " drive",
  "2551": " crayons",
  "2552": " clever",
  "2553": " class",
  "2554": " circle",
  "2555": " chicken",
  "2556": " careless",
  "2557": " ce",
  "2558": " boot",
  "2559": " backyard",
  "2560": " bal",
  "2561": " afraid",
  "2562": " adm",
  "2563": " Tr",
  "2564": " Ru",
  "2565": " Grandma",
  "2566": " Chirpy",
  "2567": "ulu",
  "2568": "stal",
  "2569": "ror",
  "2570": "pid",
  "2571": "olate",
  "2572": "ocolate",
  "2573": "oceros",
  "2574": "inoceros",
  "2575": "igator",
  "2576": "iant",
  "2577": "elery",
  "2578": "cycle",
  "2579": "arge",
  "2580": "Molly",
  "2581": "Kitty",
  "2582": " wrap",
  "2583": " wasn",
  "2584": " wore",
  "2585": " thankful",
  "2586": " squee",
  "2587": " sold",
  "2588": " slipped",
  "2589": " rose",
  "2590": " rich",
  "2591": " rhinoceros",
  "2592": " reg",
  "2593": " police",
  "2594": " nuts",
  "2595": " motorcycle",
  "2596": " mailbox",
  "2597": " magn",
  "2598": " lovely",
  "2599": " loves",
  "2600": " large",
  "2601": " interesting",
  "2602": " incredible",
  "2603": " half",
  "2604": " hon",
  "2605": " firewor",
  "2606": " fing",
  "2607": " dist",
  "2608": " dig",
  "2609": " crystal",
  "2610": " crib",
  "2611": " chocolate",
  "2612": " chalk",
  "2613": " celery",
  "2614": " bubble",
  "2615": " breath",
  "2616": " beak",
  "2617": " alligator",
  "2618": " TV",
  "2619": " Buzz",
  "2620": " Bunny",
  "2621": "ying",
  "2622": "umsy",
  "2623": "osaur",
  "2624": "mbre",
  "2625": "most",
  "2626": "mer",
  "2627": "ment",
  "2628": "imp",
  "2629": "ian",
  "2630": "ebra",
  "2631": "To",
  "2632": "Sure",
  "2633": "Joe",
  "2634": "Come",
  "2635": " zebra",
  "2636": " wearing",
  "2637": " weak",
  "2638": " wild",
  "2639": " uncle",
  "2640": " umbre",
  "2641": " stupid",
  "2642": " steak",
  "2643": " spread",
  "2644": " spark",
  "2645": " seemed",
  "2646": " seek",
  "2647": " scatter",
  "2648": " sauce",
  "2649": " sal",
  "2650": " sick",
  "2651": " rocket",
  "2652": " respect",
  "2653": " pres",
  "2654": " pillow",
  "2655": " pan",
  "2656": " pack",
  "2657": " nation",
  "2658": " moms",
  "2659": " mixer",
  "2660": " mint",
  "2661": " mama",
  "2662": " later",
  "2663": " kiss",
  "2664": " jumping",
  "2665": " hur",
  "2666": " grapes",
  "2667": " gen",
  "2668": " flame",
  "2669": " eraser",
  "2670": " eag",
  "2671": " dizzy",
  "2672": " clumsy",
  "2673": " club",
  "2674": " cats",
  "2675": " cr",
  "2676": " bored",
  "2677": " ashamed",
  "2678": " almost",
  "2679": " add",
  "2680": " Some",
  "2681": " Sn",
  "2682": " Many",
  "2683": " Jenny",
  "2684": " Jake",
  "2685": " Come",
  "2686": " ind",
  "2687": "ult",
  "2688": "ual",
  "2689": "ssed",
  "2690": "ses",
  "2691": "oomy",
  "2692": "mbar",
  "2693": "mbarra",
  "2694": "lliant",
  "2695": "irror",
  "2696": "iv",
  "2697": "ipp",
  "2698": "case",
  "2699": "Tommy",
  "2700": "Mum",
  "2701": " young",
  "2702": " yarn",
  "2703": " wash",
  "2704": " waffle",
  "2705": " wide",
  "2706": " umbrella",
  "2707": " taught",
  "2708": " stepped",
  "2709": " stream",
  "2710": " stood",
  "2711": " stair",
  "2712": " rub",
  "2713": " rid",
  "2714": " rare",
  "2715": " polite",
  "2716": " pepper",
  "2717": " pow",
  "2718": " pir",
  "2719": " mop",
  "2720": " mirror",
  "2721": " maybe",
  "2722": " loop",
  "2723": " grape",
  "2724": " grate",
  "2725": " gloomy",
  "2726": " gather",
  "2727": " flag",
  "2728": " film",
  "2729": " fig",
  "2730": " embarra",
  "2731": " dug",
  "2732": " brilliant",
  "2733": " bookcase",
  "2734": " balance",
  "2735": " ang",
  "2736": " Sh",
  "2737": " Luna",
  "2738": " How",
  "2739": " Go",
  "2740": " Dan",
  "2741": "wber",
  "2742": "ventually",
  "2743": "rawber",
  "2744": "orry",
  "2745": "oose",
  "2746": "igent",
  "2747": "erries",
  "2748": "ependent",
  "2749": "elligent",
  "2750": "els",
  "2751": "ever",
  "2752": "aze",
  "2753": "assion",
  "2754": "ask",
  "2755": "amera",
  "2756": "alous",
  "2757": "aces",
  "2758": "Billy",
  "2759": " wouldn",
  "2760": " wolf",
  "2761": " teeth",
  "2762": " tied",
  "2763": " tid",
  "2764": " swamp",
  "2765": " sort",
  "2766": " smaller",
  "2767": " shoot",
  "2768": " shelf",
  "2769": " search",
  "2770": " rise",
  "2771": " pretended",
  "2772": " present",
  "2773": " pocket",
  "2774": " lose",
  "2775": " leop",
  "2776": " lab",
  "2777": " letter",
  "2778": " knee",
  "2779": " jealous",
  "2780": " jolly",
  "2781": " intelligent",
  "2782": " independent",
  "2783": " hum",
  "2784": " guard",
  "2785": " grateful",
  "2786": " gold",
  "2787": " gives",
  "2788": " gun",
  "2789": " gigg",
  "2790": " gear",
  "2791": " finding",
  "2792": " drum",
  "2793": " drank",
  "2794": " deliver",
  "2795": " decide",
  "2796": " dough",
  "2797": " compassion",
  "2798": " comb",
  "2799": " coat",
  "2800": " cross",
  "2801": " card",
  "2802": " camera",
  "2803": " cage",
  "2804": " balls",
  "2805": " berries",
  "2806": " avoc",
  "2807": " Zoom",
  "2808": " Their",
  "2809": " Penny",
  "2810": " Ollie",
  "2811": " Jill",
  "2812": "usual",
  "2813": "urch",
  "2814": "lock",
  "2815": "iger",
  "2816": "ato",
  "2817": "ates",
  "2818": "arl",
  "2819": "affe",
  "2820": "How",
  "2821": " wrapped",
  "2822": " whist",
  "2823": " wing",
  "2824": " useful",
  "2825": " understood",
  "2826": " unusual",
  "2827": " step",
  "2828": " smoke",
  "2829": " scrat",
  "2830": " saved",
  "2831": " pup",
  "2832": " pressed",
  "2833": " plants",
  "2834": " picks",
  "2835": " organ",
  "2836": " mysterious",
  "2837": " mistake",
  "2838": " meal",
  "2839": " magnet",
  "2840": " load",
  "2841": " lives",
  "2842": " leopard",
  "2843": " line",
  "2844": " kick",
  "2845": " horn",
  "2846": " guess",
  "2847": " giraffe",
  "2848": " feathers",
  "2849": " fool",
  "2850": " exploring",
  "2851": " embarrassed",
  "2852": " dreamed",
  "2853": " dinosaur",
  "2854": " couch",
  "2855": " compassionate",
  "2856": " clear",
  "2857": " cries",
  "2858": " bottom",
  "2859": " blackboard",
  "2860": " aunt",
  "2861": " Lulu",
  "2862": " Jim",
  "2863": " Alex",
  "2864": "utes",
  "2865": "usie",
  "2866": "par",
  "2867": "oli",
  "2868": "land",
  "2869": "iable",
  "2870": "ique",
  "2871": "hip",
  "2872": "erce",
  "2873": "ccoli",
  "2874": "andy",
  "2875": " value",
  "2876": " unique",
  "2877": " thu",
  "2878": " switch",
  "2879": " stack",
  "2880": " spotted",
  "2881": " splashed",
  "2882": " split",
  "2883": " spring",
  "2884": " sock",
  "2885": " shrink",
  "2886": " seeds",
  "2887": " separ",
  "2888": " sandwich",
  "2889": " sandc",
  "2890": " sandbox",
  "2891": " save",
  "2892": " sil",
  "2893": " rough",
  "2894": " rat",
  "2895": " powder",
  "2896": " noisy",
  "2897": " nurse",
  "2898": " moving",
  "2899": " minutes",
  "2900": " meant",
  "2901": " mill",
  "2902": " maze",
  "2903": " lock",
  "2904": " kissed",
  "2905": " journey",
  "2906": " island",
  "2907": " honest",
  "2908": " harder",
  "2909": " glow",
  "2910": " gets",
  "2911": " figure",
  "2912": " fierce",
  "2913": " fest",
  "2914": " exciting",
  "2915": " escape",
  "2916": " disco",
  "2917": " cozy",
  "2918": " cherries",
  "2919": " church",
  "2920": " bull",
  "2921": " broccoli",
  "2922": " behave",
  "2923": " avocado",
  "2924": " Peter",
  "2925": " Bessie",
  "2926": "umbled",
  "2927": "tern",
  "2928": "stless",
  "2929": "rated",
  "2930": "pill",
  "2931": "pillar",
  "2932": "ormous",
  "2933": "ormal",
  "2934": "oby",
  "2935": "met",
  "2936": "ival",
  "2937": "iser",
  "2938": "iserable",
  "2939": "inal",
  "2940": "iginal",
  "2941": "icked",
  "2942": "fortable",
  "2943": "esday",
  "2944": "erpillar",
  "2945": "astle",
  "2946": "Sorry",
  "2947": " zoo",
  "2948": " worm",
  "2949": " whale",
  "2950": " weep",
  "2951": " wake",
  "2952": " witch",
  "2953": " trust",
  "2954": " tidy",
  "2955": " thoughtful",
  "2956": " team",
  "2957": " sunf",
  "2958": " success",
  "2959": " stretch",
  "2960": " speak",
  "2961": " soap",
  "2962": " sandcastle",
  "2963": " reliable",
  "2964": " relax",
  "2965": " restless",
  "2966": " roof",
  "2967": " ring",
  "2968": " poor",
  "2969": " pole",
  "2970": " poked",
  "2971": " places",
  "2972": " phot",
  "2973": " parrot",
  "2974": " pale",
  "2975": " pour",
  "2976": " original",
  "2977": " normal",
  "2978": " mule",
  "2979": " moon",
  "2980": " mighty",
  "2981": " meat",
  "2982": " miserable",
  "2983": " libr",
  "2984": " lazy",
  "2985": " kicked",
  "2986": " itch",
  "2987": " ignorant",
  "2988": " hopping",
  "2989": " helmet",
  "2990": " furry",
  "2991": " foolish",
  "2992": " float",
  "2993": " finish",
  "2994": " festival",
  "2995": " fancy",
  "2996": " fine",
  "2997": " enormous",
  "2998": " eager",
  "2999": " drawing",
  "3000": " decorate",
  "3001": " dust",
  "3002": " covered",
  "3003": " coins",
  "3004": " char",
  "3005": " caterpillar",
  "3006": " cane",
  "3007": " cact",
  "3008": " branches",
  "3009": " bees",
  "3010": " My",
  "3011": " Fred",
  "3012": "weet",
  "3013": "ume",
  "3014": "tion",
  "3015": "owman",
  "3016": "otten",
  "3017": "mon",
  "3018": "iness",
  "3019": "ident",
  "3020": "gust",
  "3021": "ek",
  "3022": "coa",
  "3023": "celet",
  "3024": "Mummy",
  "3025": " towel",
  "3026": " thunder",
  "3027": " thirst",
  "3028": " tele",
  "3029": " tasted",
  "3030": " shape",
  "3031": " shark",
  "3032": " separate",
  "3033": " sell",
  "3034": " scare",
  "3035": " regular",
  "3036": " radish",
  "3037": " raven",
  "3038": " rot",
  "3039": " playful",
  "3040": " patch",
  "3041": " pri",
  "3042": " notice",
  "3043": " nods",
  "3044": " mush",
  "3045": " marble",
  "3046": " manag",
  "3047": " lotion",
  "3048": " log",
  "3049": " library",
  "3050": " lemon",
  "3051": " leather",
  "3052": " ink",
  "3053": " impress",
  "3054": " helpless",
  "3055": " ham",
  "3056": " grand",
  "3057": " gas",
  "3058": " friendship",
  "3059": " fountain",
  "3060": " foot",
  "3061": " disgust",
  "3062": " design",
  "3063": " delicate",
  "3064": " crazy",
  "3065": " cows",
  "3066": " cocoa",
  "3067": " cheap",
  "3068": " cactus",
  "3069": " brothers",
  "3070": " bracelet",
  "3071": " bridge",
  "3072": " bedroom",
  "3073": " Snowman",
  "3074": " Mary",
  "3075": " N",
  "3076": "xe",
  "3077": "ungle",
  "3078": "spit",
  "3079": "spital",
  "3080": "shine",
  "3081": "ours",
  "3082": "nown",
  "3083": "mpty",
  "3084": "lexible",
  "3085": "lves",
  "3086": "light",
  "3087": "known",
  "3088": "istent",
  "3089": "ippy",
  "3090": "ipper",
  "3091": "host",
  "3092": "gu",
  "3093": "fa",
  "3094": "erous",
  "3095": "arm",
  "3096": "anged",
  "3097": "aff",
  "3098": "Me",
  "3099": "Fluffy",
  "3100": "Daisy",
  "3101": " wagon",
  "3102": " unknown",
  "3103": " times",
  "3104": " thirsty",
  "3105": " though",
  "3106": " stud",
  "3107": " stronger",
  "3108": " staff",
  "3109": " spinning",
  "3110": " sport",
  "3111": " soldier",
  "3112": " soar",
  "3113": " skin",
  "3114": " send",
  "3115": " ruined",
  "3116": " rode",
  "3117": " rice",
  "3118": " rep",
  "3119": " princess",
  "3120": " persistent",
  "3121": " painting",
  "3122": " pedal",
  "3123": " ord",
  "3124": " mixed",
  "3125": " mummy",
  "3126": " lively",
  "3127": " lip",
  "3128": " legs",
  "3129": " juicy",
  "3130": " joined",
  "3131": " jungle",
  "3132": " itself",
  "3133": " invited",
  "3134": " hospital",
  "3135": " healthy",
  "3136": " happiness",
  "3137": " generous",
  "3138": " ghost",
  "3139": " gate",
  "3140": " flexible",
  "3141": " explained",
  "3142": " earth",
  "3143": " empty",
  "3144": " drain",
  "3145": " disgusting",
  "3146": " creatures",
  "3147": " craw",
  "3148": " cost",
  "3149": " cheerful",
  "3150": " charming",
  "3151": " coo",
  "3152": " boys",
  "3153": " bounce",
  "3154": " become",
  "3155": " balloons",
  "3156": " appl",
  "3157": " angel",
  "3158": " agree",
  "3159": " acc",
  "3160": " axe",
  "3161": " True",
  "3162": " Dolly",
  "3163": " Cat",
  "3164": " 3",
  "3165": "zed",
  "3166": "ward",
  "3167": "vator",
  "3168": "utom",
  "3169": "utomob",
  "3170": "utomobile",
  "3171": "ustrated",
  "3172": "unn",
  "3173": "resh",
  "3174": "rawberry",
  "3175": "play",
  "3176": "pack",
  "3177": "ouses",
  "3178": "ont",
  "3179": "ither",
  "3180": "issors",
  "3181": "icult",
  "3182": "ficult",
  "3183": "cean",
  "3184": "aud",
  "3185": "Where",
  "3186": "Their",
  "3187": "Sarah",
  "3188": "Jane",
  "3189": "Gra",
  "3190": " wander",
  "3191": " veil",
  "3192": " vend",
  "3193": " van",
  "3194": " test",
  "3195": " sunshine",
  "3196": " standing",
  "3197": " stumbled",
  "3198": " stuff",
  "3199": " solve",
  "3200": " shine",
  "3201": " scissors",
  "3202": " scale",
  "3203": " salad",
  "3204": " saf",
  "3205": " reading",
  "3206": " raced",
  "3207": " quit",
  "3208": " prot",
  "3209": " pattern",
  "3210": " pay",
  "3211": " oil",
  "3212": " ocean",
  "3213": " mushroom",
  "3214": " meadow",
  "3215": " market",
  "3216": " makeup",
  "3217": " mind",
  "3218": " med",
  "3219": " licked",
  "3220": " lying",
  "3221": " kindness",
  "3222": " hero",
  "3223": " hedge",
  "3224": " hang",
  "3225": " houses",
  "3226": " gray",
  "3227": " front",
  "3228": " fright",
  "3229": " frame",
  "3230": " forth",
  "3231": " finger",
  "3232": " famous",
  "3233": " fresh",
  "3234": " four",
  "3235": " excite",
  "3236": " exam",
  "3237": " elevator",
  "3238": " discover",
  "3239": " difficult",
  "3240": " desk",
  "3241": " collar",
  "3242": " cleaning",
  "3243": " cliff",
  "3244": " chest",
  "3245": " changed",
  "3246": " ceiling",
  "3247": " applaud",
  "3248": " alarm",
  "3249": " accident",
  "3250": " automobile",
  "3251": " added",
  "3252": " Tweet",
  "3253": " Susie",
  "3254": " Rob",
  "3255": " Mum",
  "3256": " Jazz",
  "3257": " U",
  "3258": "uring",
  "3259": "ugh",
  "3260": "ugar",
  "3261": "selves",
  "3262": "reen",
  "3263": "rag",
  "3264": "ote",
  "3265": "omes",
  "3266": "oppy",
  "3267": "nam",
  "3268": "king",
  "3269": "isp",
  "3270": "ime",
  "3271": "ilt",
  "3272": "ikes",
  "3273": "ib",
  "3274": "guin",
  "3275": "ground",
  "3276": "ete",
  "3277": "ependable",
  "3278": "elly",
  "3279": "bin",
  "3280": "aw",
  "3281": "apped",
  "3282": "Every",
  "3283": " wrote",
  "3284": " whisp",
  "3285": " wool",
  "3286": " unlock",
  "3287": " trash",
  "3288": " trap",
  "3289": " trade",
  "3290": " tough",
  "3291": " tears",
  "3292": " temp",
  "3293": " tiger",
  "3294": " sweetie",
  "3295": " starts",
  "3296": " squeeze",
  "3297": " spoke",
  "3298": " spoon",
  "3299": " spill",
  "3300": " sneeze",
  "3301": " snacks",
  "3302": " smiling",
  "3303": " shrimp",
  "3304": " shut",
  "3305": " seat",
  "3306": " saying",
  "3307": " sailed",
  "3308": " sugar",
  "3309": " returned",
  "3310": " remind",
  "3311": " ranch",
  "3312": " potato",
  "3313": " player",
  "3314": " pirate",
  "3315": " pigs",
  "3316": " photo",
  "3317": " penguin",
  "3318": " needs",
  "3319": " names",
  "3320": " nail",
  "3321": " modest",
  "3322": " managed",
  "3323": " lights",
  "3324": " lift",
  "3325": " lean",
  "3326": " lead",
  "3327": " lumber",
  "3328": " journal",
  "3329": " jelly",
  "3330": " hose",
  "3331": " happening",
  "3332": " group",
  "3333": " fruits",
  "3334": " frightened",
  "3335": " frustrated",
  "3336": " fearful",
  "3337": " ending",
  "3338": " eventually",
  "3339": " drawings",
  "3340": " dove",
  "3341": " display",
  "3342": " deaf",
  "3343": " dependable",
  "3344": " crack",
  "3345": " cooked",
  "3346": " clay",
  "3347": " cherry",
  "3348": " carrots",
  "3349": " cabin",
  "3350": " cro",
  "3351": " built",
  "3352": " brick",
  "3353": " bathroom",
  "3354": " batter",
  "3355": " bat",
  "3356": " amb",
  "3357": " alert",
  "3358": " Today",
  "3359": " Rina",
  "3360": "yer",
  "3361": "ye",
  "3362": "usia",
  "3363": "usiast",
  "3364": "usiastic",
  "3365": "ube",
  "3366": "ope",
  "3367": "oggy",
  "3368": "oco",
  "3369": "lcano",
  "3370": "lass",
  "3371": "lasses",
  "3372": "ighed",
  "3373": "htray",
  "3374": "head",
  "3375": "husiastic",
  "3376": "glasses",
  "3377": "fted",
  "3378": "eater",
  "3379": "aughter",
  "3380": "atient",
  "3381": "atch",
  "3382": "asks",
  "3383": "arrel",
  "3384": "Well",
  "3385": "Together",
  "3386": "Lisa",
  "3387": "And",
  "3388": " yourself",
  "3389": " wiped",
  "3390": " volcano",
  "3391": " vine",
  "3392": " tuna",
  "3393": " tube",
  "3394": " tick",
  "3395": " sunflower",
  "3396": " sunglasses",
  "3397": " study",
  "3398": " stripes",
  "3399": " station",
  "3400": " shocked",
  "3401": " screen",
  "3402": " sur",
  "3403": " riding",
  "3404": " quarrel",
  "3405": " punish",
  "3406": " protect",
  "3407": " post",
  "3408": " planet",
  "3409": " pear",
  "3410": " pasta",
  "3411": " organized",
  "3412": " opens",
  "3413": " opera",
  "3414": " ones",
  "3415": " ok",
  "3416": " missile",
  "3417": " marry",
  "3418": " lawyer",
  "3419": " lit",
  "3420": " knowing",
  "3421": " knock",
  "3422": " keys",
  "3423": " jew",
  "3424": " junk",
  "3425": " impatient",
  "3426": " hurts",
  "3427": " homes",
  "3428": " grandpa",
  "3429": " gar",
  "3430": " folder",
  "3431": " flash",
  "3432": " five",
  "3433": " fat",
  "3434": " enthusiastic",
  "3435": " enjoying",
  "3436": " env",
  "3437": " drops",
  "3438": " daughter",
  "3439": " circ",
  "3440": " cart",
  "3441": " city",
  "3442": " camp",
  "3443": " bushes",
  "3444": " borrow",
  "3445": " blow",
  "3446": " barks",
  "3447": " bald",
  "3448": " burned",
  "3449": " asleep",
  "3450": " ashtray",
  "3451": " arrow",
  "3452": " ap",
  "3453": " ants",
  "3454": " Teddy",
  "3455": " Pete",
  "3456": " Miss",
  "3457": " Liz",
  "3458": " Grandpa",
  "3459": " Give",
  "3460": " Ellie",
  "3461": " Benny",
  "3462": " Andy",
  "3463": " ed",
  "3464": "ulif",
  "3465": "uliflower",
  "3466": "ulance",
  "3467": "ucet",
  "3468": "ubby",
  "3469": "seum",
  "3470": "queen",
  "3471": "place",
  "3472": "owed",
  "3473": "oph",
  "3474": "ndar",
  "3475": "nament",
  "3476": "lept",
  "3477": "lendar",
  "3478": "loo",
  "3479": "inted",
  "3480": "inary",
  "3481": "igloo",
  "3482": "gest",
  "3483": "ext",
  "3484": "dle",
  "3485": "dile",
  "3486": "codile",
  "3487": "chor",
  "3488": "cient",
  "3489": "bborn",
  "3490": "ball",
  "3491": "aurant",
  "3492": "atue",
  "3493": "ated",
  "3494": "apon",
  "3495": "ages",
  "3496": "Timmy",
  "3497": "There",
  "3498": "See",
  "3499": "If",
  "3500": "Here",
  "3501": "Bye",
  "3502": " yours",
  "3503": " yield",
  "3504": " wishes",
  "3505": " which",
  "3506": " weeping",
  "3507": " weird",
  "3508": " weapon",
  "3509": " walls",
  "3510": " warn",
  "3511": " vendor",
  "3512": " using",
  "3513": " torn",
  "3514": " temple",
  "3515": " taken",
  "3516": " tire",
  "3517": " successful",
  "3518": " stubborn",
  "3519": " stops",
  "3520": " steal",
  "3521": " statue",
  "3522": " squash",
  "3523": " spun",
  "3524": " sofa",
  "3525": " sleeping",
  "3526": " showing",
  "3527": " slept",
  "3528": " size",
  "3529": " sight",
  "3530": " sighed",
  "3531": " restaurant",
  "3532": " raise",
  "3533": " questions",
  "3534": " pushes",
  "3535": " punished",
  "3536": " prize",
  "3537": " practice",
  "3538": " pro",
  "3539": " perform",
  "3540": " ornament",
  "3541": " museum",
  "3542": " mistakes",
  "3543": " mountain",
  "3544": " licks",
  "3545": " laughs",
  "3546": " lands",
  "3547": " label",
  "3548": " low",
  "3549": " judge",
  "3550": " joke",
  "3551": " jazz",
  "3552": " imagine",
  "3553": " hammer",
  "3554": " growing",
  "3555": " goose",
  "3556": " frown",
  "3557": " forward",
  "3558": " fluffy",
  "3559": " firework",
  "3560": " fireplace",
  "3561": " falls",
  "3562": " faucet",
  "3563": " envious",
  "3564": " eggs",
  "3565": " doors",
  "3566": " crocodile",
  "3567": " create",
  "3568": " chubby",
  "3569": " chase",
  "3570": " cauliflower",
  "3571": " calendar",
  "3572": " bubbles",
  "3573": " body",
  "3574": " biggest",
  "3575": " belongs",
  "3576": " belonged",
  "3577": " battery",
  "3578": " bump",
  "3579": " bet",
  "3580": " answered",
  "3581": " ancient",
  "3582": " anchor",
  "3583": " ambulance",
  "3584": " Zara",
  "3585": " Pe",
  "3586": " Kim",
  "3587": " Even",
  "3588": " Daddy",
  "3589": " queen",
  "3590": " igloo",
  "3591": "zag",
  "3592": "vet",
  "3593": "ured",
  "3594": "ulb",
  "3595": "tionary",
  "3596": "ragile",
  "3597": "ractive",
  "3598": "rage",
  "3599": "ped",
  "3600": "ory",
  "3601": "ones",
  "3602": "ogn",
  "3603": "ointed",
  "3604": "nic",
  "3605": "nesday",
  "3606": "mless",
  "3607": "mined",
  "3608": "low",
  "3609": "ky",
  "3610": "kin",
  "3611": "ilot",
  "3612": "igzag",
  "3613": "ictionary",
  "3614": "icine",
  "3615": "ipping",
  "3616": "helf",
  "3617": "etermined",
  "3618": "elvet",
  "3619": "ednesday",
  "3620": "ctory",
  "3621": "chair",
  "3622": "come",
  "3623": "bbon",
  "3624": "bled",
  "3625": "arian",
  "3626": "angle",
  "3627": "aking",
  "3628": "aches",
  "3629": "ait",
  "3630": "Velvet",
  "3631": ",”",
  "3632": " whistle",
  "3633": " wealthy",
  "3634": " wags",
  "3635": " wink",
  "3636": " trick",
  "3637": " themselves",
  "3638": " these",
  "3639": " tells",
  "3640": " task",
  "3641": " sweater",
  "3642": " stage",
  "3643": " spent",
  "3644": " sheet",
  "3645": " scratch",
  "3646": " sugg",
  "3647": " roared",
  "3648": " ribbon",
  "3649": " recogn",
  "3650": " rug",
  "3651": " practiced",
  "3652": " pray",
  "3653": " popped",
  "3654": " picnic",
  "3655": " pebble",
  "3656": " passed",
  "3657": " pump",
  "3658": " ordinary",
  "3659": " once",
  "3660": " nosy",
  "3661": " nicely",
  "3662": " number",
  "3663": " numb",
  "3664": " metal",
  "3665": " medicine",
  "3666": " meas",
  "3667": " mild",
  "3668": " melt",
  "3669": " lifted",
  "3670": " learning",
  "3671": " leash",
  "3672": " kinds",
  "3673": " jumps",
  "3674": " jail",
  "3675": " ins",
  "3676": " impressive",
  "3677": " hung",
  "3678": " holes",
  "3679": " helps",
  "3680": " harmless",
  "3681": " hours",
  "3682": " gathered",
  "3683": " fro",
  "3684": " flashlight",
  "3685": " fragile",
  "3686": " edge",
  "3687": " distant",
  "3688": " disappointed",
  "3689": " dear",
  "3690": " dictionary",
  "3691": " crab",
  "3692": " crown",
  "3693": " col",
  "3694": " circles",
  "3695": " cabinet",
  "3696": " cast",
  "3697": " bookshelf",
  "3698": " bulb",
  "3699": " attractive",
  "3700": " armchair",
  "3701": " arg",
  "3702": " Your",
  "3703": " Wednesday",
  "3704": " Toby",
  "3705": " Tina",
  "3706": " Rich",
  "3707": " Poppy",
  "3708": " Coco",
  "3709": " Carl",
  "3710": " Bill",
  "3711": "tra",
  "3712": "sect",
  "3713": "ready",
  "3714": "ppers",
  "3715": "oxy",
  "3716": "lly",
  "3717": "ls",
  "3718": "ler",
  "3719": "ivers",
  "3720": "isted",
  "3721": "iron",
  "3722": "ipe",
  "3723": "inky",
  "3724": "ines",
  "3725": "inarian",
  "3726": "ife",
  "3727": "iew",
  "3728": "ief",
  "3729": "iddle",
  "3730": "ium",
  "3731": "ience",
  "3732": "hew",
  "3733": "eterinarian",
  "3734": "etit",
  "3735": "enu",
  "3736": "ena",
  "3737": "edient",
  "3738": "ailable",
  "3739": "aul",
  "3740": "appy",
  "3741": "Little",
  "3742": "Jim",
  "3743": " wipe",
  "3744": " ways",
  "3745": " washed",
  "3746": " wine",
  "3747": " view",
  "3748": " veterinarian",
  "3749": " towers",
  "3750": " telling",
  "3751": " tent",
  "3752": " strugg",
  "3753": " steam",
  "3754": " stairs",
  "3755": " strawberry",
  "3756": " stom",
  "3757": " slides",
  "3758": " slip",
  "3759": " silver",
  "3760": " shows",
  "3761": " shoulder",
  "3762": " shade",
  "3763": " seal",
  "3764": " son",
  "3765": " sink",
  "3766": " sent",
  "3767": " return",
  "3768": " rabbits",
  "3769": " rotten",
  "3770": " pupp",
  "3771": " pretending",
  "3772": " plates",
  "3773": " pencils",
  "3774": " painter",
  "3775": " order",
  "3776": " office",
  "3777": " offered",
  "3778": " obedient",
  "3779": " numbers",
  "3780": " musician",
  "3781": " middle",
  "3782": " menu",
  "3783": " mass",
  "3784": " louder",
  "3785": " letters",
  "3786": " led",
  "3787": " knows",
  "3788": " insect",
  "3789": " hurry",
  "3790": " humble",
  "3791": " holds",
  "3792": " harsh",
  "3793": " harbor",
  "3794": " grabs",
  "3795": " glitter",
  "3796": " gum",
  "3797": " fireworks",
  "3798": " factory",
  "3799": " fle",
  "3800": " excitement",
  "3801": " extra",
  "3802": " either",
  "3803": " dreams",
  "3804": " drawer",
  "3805": " doesn",
  "3806": " dish",
  "3807": " determined",
  "3808": " cups",
  "3809": " costume",
  "3810": " complet",
  "3811": " competit",
  "3812": " classroom",
  "3813": " clapping",
  "3814": " chickens",
  "3815": " castles",
  "3816": " carrying",
  "3817": " cardboard",
  "3818": " cudd",
  "3819": " cop",
  "3820": " cone",
  "3821": " case",
  "3822": " cards",
  "3823": " bury",
  "3824": " boxes",
  "3825": " boats",
  "3826": " anyway",
  "3827": " already",
  "3828": " admired",
  "3829": " ador",
  "3830": " ahead",
  "3831": " Ol",
  "3832": " Fr",
  "3833": " Boxy",
  "3834": " Velvet",
  "3835": "zen",
  "3836": "zard",
  "3837": "yal",
  "3838": "xious",
  "3839": "uter",
  "3840": "urous",
  "3841": "unnel",
  "3842": "ulie",
  "3843": "ush",
  "3844": "tress",
  "3845": "sive",
  "3846": "ric",
  "3847": "ricane",
  "3848": "ple",
  "3849": "ned",
  "3850": "lph",
  "3851": "ject",
  "3852": "ippo",
  "3853": "inked",
  "3854": "ination",
  "3855": "icer",
  "3856": "hog",
  "3857": "ging",
  "3858": "etle",
  "3859": "ested",
  "3860": "eration",
  "3861": "ensive",
  "3862": "eady",
  "3863": "corn",
  "3864": "com",
  "3865": "body",
  "3866": "aused",
  "3867": "ations",
  "3868": "ason",
  "3869": "acht",
  "3870": "ache",
  "3871": "aver",
  "3872": "Wait",
  "3873": "Mr",
  "3874": "Go",
  "3875": "!\".",
  "3876": " yacht",
  "3877": " waving",
  "3878": " valu",
  "3879": " ur",
  "3880": " troubled",
  "3881": " triangle",
  "3882": " tightly",
  "3883": " those",
  "3884": " tunnel",
  "3885": " tug",
  "3886": " stirred",
  "3887": " steel",
  "3888": " speed",
  "3889": " sniff",
  "3890": " smells",
  "3891": " shouts",
  "3892": " shovel",
  "3893": " short",
  "3894": " shock",
  "3895": " shakes",
  "3896": " settle",
  "3897": " sadly",
  "3898": " respectful",
  "3899": " resist",
  "3900": " remove",
  "3901": " quiz",
  "3902": " puppet",
  "3903": " print",
  "3904": " prevent",
  "3905": " poured",
  "3906": " popular",
  "3907": " popcorn",
  "3908": " points",
  "3909": " playground",
  "3910": " peppers",
  "3911": " pean",
  "3912": " package",
  "3913": " ple",
  "3914": " pipe",
  "3915": " operation",
  "3916": " onion",
  "3917": " oats",
  "3918": " model",
  "3919": " moves",
  "3920": " message",
  "3921": " meeting",
  "3922": " means",
  "3923": " marbles",
  "3924": " lizard",
  "3925": " lid",
  "3926": " knot",
  "3927": " jokes",
  "3928": " jewel",
  "3929": " insisted",
  "3930": " hurricane",
  "3931": " hotel",
  "3932": " hedgehog",
  "3933": " giggle",
  "3934": " giving",
  "3935": " garage",
  "3936": " freeze",
  "3937": " fog",
  "3938": " expensive",
  "3939": " envel",
  "3940": " enc",
  "3941": " dolph",
  "3942": " disappeared",
  "3943": " couple",
  "3944": " computer",
  "3945": " coal",
  "3946": " chose",
  "3947": " chas",
  "3948": " chain",
  "3949": " breaks",
  "3950": " breat",
  "3951": " beetle",
  "3952": " bikes",
  "3953": " argue",
  "3954": " anxious",
  "3955": " adventurous",
  "3956": " adorable",
  "3957": " above",
  "3958": " While",
  "3959": " Will",
  "3960": " Tuna",
  "3961": " Ste",
  "3962": " Sharing",
  "3963": " Ro",
  "3964": " Red",
  "3965": " Mrs",
  "3966": " King",
  "3967": " Doggy",
  "3968": " Beaver",
  "3969": " Big",
  "3970": " �",
  "3971": "yd",
  "3972": "ydia",
  "3973": "xu",
  "3974": "xury",
  "3975": "was",
  "3976": "washer",
  "3977": "vis",
  "3978": "vision",
  "3979": "uper",
  "3980": "uler",
  "3981": "uffer",
  "3982": "uxury",
  "3983": "und",
  "3984": "ten",
  "3985": "stair",
  "3986": "stairs",
  "3987": "rink",
  "3988": "opus",
  "3989": "opter",
  "3990": "ooped",
  "3991": "olog",
  "3992": "ola",
  "3993": "llip",
  "3994": "llipop",
  "3995": "lid",
  "3996": "liday",
  "3997": "iversity",
  "3998": "ising",
  "3999": "ippery",
  "4000": "icopter",
  "4001": "ibi",
  "4002": "hell",
  "4003": "gen",
  "4004": "fus",
  "4005": "emember",
  "4006": "elcome",
  "4007": "edy",
  "4008": "eon",
  "4009": "ea",
  "4010": "dern",
  "4011": "ddy",
  "4012": "dom",
  "4013": "ctopus",
  "4014": "comfortable",
  "4015": "bour",
  "4016": "bies",
  "4017": "azine",
  "4018": "ately",
  "4019": "arter",
  "4020": "achine",
  "4021": "av",
  "4022": "Yum",
  "4023": "Yuck",
  "4024": "Ow",
  "4025": "Ouch",
  "4026": "Jimmy",
  "4027": "Inside",
  "4028": "Is",
  "4029": "Did",
  "4030": "Bobby",
  "4031": " whispered",
  "4032": " weigh",
  "4033": " valuable",
  "4034": " unite",
  "4035": " uncomfortable",
  "4036": " travel",
  "4037": " thinking",
  "4038": " thanks",
  "4039": " television",
  "4040": " tease",
  "4041": " teas",
  "4042": " swung",
  "4043": " support",
  "4044": " student",
  "4045": " sprayed",
  "4046": " spilled",
  "4047": " spid",
  "4048": " spell",
  "4049": " smarter",
  "4050": " slippery",
  "4051": " skipped",
  "4052": " skip",
  "4053": " shouting",
  "4054": " shouldn",
  "4055": " shells",
  "4056": " shiver",
  "4057": " ship",
  "4058": " serve",
  "4059": " serious",
  "4060": " super",
  "4061": " suffer",
  "4062": " repair",
  "4063": " refused",
  "4064": " rail",
  "4065": " ruler",
  "4066": " putting",
  "4067": " poke",
  "4068": " picking",
  "4069": " perm",
  "4070": " paid",
  "4071": " packed",
  "4072": " pins",
  "4073": " octopus",
  "4074": " nowhere",
  "4075": " muddy",
  "4076": " modern",
  "4077": " mattress",
  "4078": " mailman",
  "4079": " magazine",
  "4080": " mel",
  "4081": " mask",
  "4082": " loyal",
  "4083": " lollipop",
  "4084": " leak",
  "4085": " luxury",
  "4086": " kay",
  "4087": " hurting",
  "4088": " holiday",
  "4089": " hers",
  "4090": " helicopter",
  "4091": " heat",
  "4092": " hook",
  "4093": " hive",
  "4094": " hippo",
  "4095": " frozen",
  "4096": " flies",
  "4097": " fastest",
  "4098": " fallen",
  "4099": " ears",
  "4100": " dreaming",
  "4101": " dolphin",
  "4102": " distance",
  "4103": " dishwasher",
  "4104": " delight",
  "4105": " crawled",
  "4106": " counted",
  "4107": " complete",
  "4108": " comfortable",
  "4109": " closely",
  "4110": " cele",
  "4111": " calls",
  "4112": " cur",
  "4113": " cord",
  "4114": " cap",
  "4115": " bloom",
  "4116": " blinked",
  "4117": " beep",
  "4118": " barking",
  "4119": " barber",
  "4120": " bandage",
  "4121": " backpack",
  "4122": " babies",
  "4123": " art",
  "4124": " apolog",
  "4125": " airport",
  "4126": " against",
  "4127": " admire",
  "4128": " accidentally",
  "4129": " Tilly",
  "4130": " Shadow",
  "4131": " Rover",
  "4132": " Puffy",
  "4133": " Mama",
  "4134": " Loop",
  "4135": " Lilly",
  "4136": " Lena",
  "4137": " Instead",
  "4138": " Is",
  "4139": " Fox",
  "4140": " Everywhere",
  "4141": " Emily",
  "4142": " iron",
  "4143": " \n",
  "4144": "zor",
  "4145": "web",
  "4146": "we",
  "4147": "uth",
  "4148": "urtain",
  "4149": "rill",
  "4150": "rise",
  "4151": "quake",
  "4152": "phone",
  "4153": "orge",
  "4154": "ooter",
  "4155": "omed",
  "4156": "obweb",
  "4157": "nger",
  "4158": "lp",
  "4159": "lo",
  "4160": "lies",
  "4161": "imed",
  "4162": "iches",
  "4163": "ichell",
  "4164": "ichelle",
  "4165": "iest",
  "4166": "htub",
  "4167": "hero",
  "4168": "etty",
  "4169": "ereal",
  "4170": "emand",
  "4171": "eorge",
  "4172": "ceed",
  "4173": "cu",
  "4174": "ature",
  "4175": "anny",
  "4176": "als",
  "4177": "Will",
  "4178": "Jenny",
  "4179": "Grandma",
  "4180": "Buddy",
  "4181": "Are",
  "4182": " yaw",
  "4183": " writing",
  "4184": " week",
  "4185": " wallet",
  "4186": " walks",
  "4187": " war",
  "4188": " vroom",
  "4189": " twist",
  "4190": " trucks",
  "4191": " tripped",
  "4192": " tremb",
  "4193": " truth",
  "4194": " trunk",
  "4195": " ticket",
  "4196": " throws",
  "4197": " telephone",
  "4198": " tape",
  "4199": " swinging",
  "4200": " supply",
  "4201": " superhero",
  "4202": " sunset",
  "4203": " sunrise",
  "4204": " strike",
  "4205": " stretched",
  "4206": " stickers",
  "4207": " steps",
  "4208": " stared",
  "4209": " spend",
  "4210": " sled",
  "4211": " skirt",
  "4212": " shrug",
  "4213": " shone",
  "4214": " secrets",
  "4215": " scooter",
  "4216": " scold",
  "4217": " sandwiches",
  "4218": " saving",
  "4219": " sy",
  "4220": " sudden",
  "4221": " rotting",
  "4222": " rolling",
  "4223": " rod",
  "4224": " realised",
  "4225": " ref",
  "4226": " razor",
  "4227": " raised",
  "4228": " racing",
  "4229": " rings",
  "4230": " poems",
  "4231": " purse",
  "4232": " pilot",
  "4233": " page",
  "4234": " nur",
  "4235": " monkeys",
  "4236": " measured",
  "4237": " massage",
  "4238": " machine",
  "4239": " loudly",
  "4240": " lips",
  "4241": " leaned",
  "4242": " lime",
  "4243": " kayak",
  "4244": " jellyfish",
  "4245": " jeep",
  "4246": " incre",
  "4247": " heads",
  "4248": " happens",
  "4249": " handle",
  "4250": " hanger",
  "4251": " greedy",
  "4252": " grace",
  "4253": " giggled",
  "4254": " gifted",
  "4255": " fixing",
  "4256": " fingers",
  "4257": " eye",
  "4258": " exper",
  "4259": " excitedly",
  "4260": " ended",
  "4261": " encou",
  "4262": " earthquake",
  "4263": " demand",
  "4264": " cube",
  "4265": " cooking",
  "4266": " comfort",
  "4267": " collect",
  "4268": " chess",
  "4269": " candle",
  "4270": " curtain",
  "4271": " cobweb",
  "4272": " cereal",
  "4273": " bounced",
  "4274": " beauty",
  "4275": " bend",
  "4276": " bathtub",
  "4277": " bananas",
  "4278": " burn",
  "4279": " bur",
  "4280": " available",
  "4281": " anywhere",
  "4282": " alive",
  "4283": " agre",
  "4284": " acorns",
  "4285": " acce",
  "4286": " Would",
  "4287": " Steve",
  "4288": " Sp",
  "4289": " Soph",
  "4290": " Rufus",
  "4291": " Rex",
  "4292": " Paul",
  "4293": " Pandy",
  "4294": " Next",
  "4295": " Mike",
  "4296": " Michelle",
  "4297": " Lydia",
  "4298": " Here",
  "4299": " Help",
  "4300": " End",
  "4301": " Chew",
  "4302": " Bibi",
  "4303": "xture",
  "4304": "worm",
  "4305": "verse",
  "4306": "ushed",
  "4307": "uckie",
  "4308": "tory",
  "4309": "sc",
  "4310": "rod",
  "4311": "rec",
  "4312": "reci",
  "4313": "peat",
  "4314": "ourite",
  "4315": "orted",
  "4316": "ork",
  "4317": "opl",
  "4318": "night",
  "4319": "ney",
  "4320": "mbol",
  "4321": "med",
  "4322": "lossy",
  "4323": "kip",
  "4324": "izes",
  "4325": "ittens",
  "4326": "ison",
  "4327": "ince",
  "4328": "imney",
  "4329": "iggie",
  "4330": "ives",
  "4331": "happy",
  "4332": "gie",
  "4333": "essert",
  "4334": "eropl",
  "4335": "erc",
  "4336": "ention",
  "4337": "elsie",
  "4338": "ected",
  "4339": "bbing",
  "4340": "aura",
  "4341": "astic",
  "4342": "asis",
  "4343": "arry",
  "4344": "ari",
  "4345": "alley",
  "4346": "aggie",
  "4347": "adium",
  "4348": "acked",
  "4349": "aster",
  "4350": "Sh",
  "4351": "Ready",
  "4352": "Polly",
  "4353": "Goodbye",
  "4354": "Give",
  "4355": "Fr",
  "4356": "Daddy",
  "4357": "'d",
  "4358": " zipping",
  "4359": " zipper",
  "4360": " yet",
  "4361": " warned",
  "4362": " waves",
  "4363": " wigg",
  "4364": " valley",
  "4365": " upstairs",
  "4366": " trusted",
  "4367": " tricks",
  "4368": " tray",
  "4369": " tong",
  "4370": " thick",
  "4371": " texture",
  "4372": " tip",
  "4373": " ten",
  "4374": " symbol",
  "4375": " swan",
  "4376": " succeed",
  "4377": " students",
  "4378": " studied",
  "4379": " stirring",
  "4380": " stones",
  "4381": " stadium",
  "4382": " squeezed",
  "4383": " spoiled",
  "4384": " sparkly",
  "4385": " spear",
  "4386": " sorting",
  "4387": " softly",
  "4388": " sniffed",
  "4389": " snugg",
  "4390": " snap",
  "4391": " sliding",
  "4392": " skull",
  "4393": " silence",
  "4394": " setting",
  "4395": " second",
  "4396": " safari",
  "4397": " rules",
  "4398": " rubbed",
  "4399": " replace",
  "4400": " reply",
  "4401": " remain",
  "4402": " repeat",
  "4403": " rece",
  "4404": " reaches",
  "4405": " pumpkin",
  "4406": " prov",
  "4407": " pointing",
  "4408": " poison",
  "4409": " planes",
  "4410": " pirates",
  "4411": " pigeon",
  "4412": " petals",
  "4413": " peach",
  "4414": " parent",
  "4415": " panic",
  "4416": " paintings",
  "4417": " pair",
  "4418": " pap",
  "4419": " often",
  "4420": " oasis",
  "4421": " nurses",
  "4422": " newsp",
  "4423": " neighbour",
  "4424": " needle",
  "4425": " neckl",
  "4426": " navy",
  "4427": " nature",
  "4428": " moments",
  "4429": " missing",
  "4430": " marched",
  "4431": " masks",
  "4432": " leaving",
  "4433": " knife",
  "4434": " invite",
  "4435": " introd",
  "4436": " hills",
  "4437": " hunt",
  "4438": " graceful",
  "4439": " glue",
  "4440": " glove",
  "4441": " girls",
  "4442": " fridge",
  "4443": " forgave",
  "4444": " following",
  "4445": " filthy",
  "4446": " feelings",
  "4447": " favourite",
  "4448": " fed",
  "4449": " experience",
  "4450": " examine",
  "4451": " exerc",
  "4452": " ener",
  "4453": " earthworm",
  "4454": " early",
  "4455": " east",
  "4456": " drinking",
  "4457": " discovered",
  "4458": " disappear",
  "4459": " destroyed",
  "4460": " dessert",
  "4461": " dare",
  "4462": " crossed",
  "4463": " courage",
  "4464": " competitive",
  "4465": " comf",
  "4466": " colour",
  "4467": " closet",
  "4468": " checked",
  "4469": " chimney",
  "4470": " candles",
  "4471": " crow",
  "4472": " butterflies",
  "4473": " brighter",
  "4474": " breathe",
  "4475": " brush",
  "4476": " board",
  "4477": " bites",
  "4478": " bags",
  "4479": " baa",
  "4480": " ble",
  "4481": " bent",
  "4482": " attic",
  "4483": " appreci",
  "4484": " aw",
  "4485": " aeropl",
  "4486": " Zippy",
  "4487": " Wally",
  "4488": " Under",
  "4489": " Truckie",
  "4490": " Sm",
  "4491": " Skip",
  "4492": " Robo",
  "4493": " Or",
  "4494": " Mittens",
  "4495": " May",
  "4496": " Match",
  "4497": " Mar",
  "4498": " Manny",
  "4499": " Look",
  "4500": " Lizzy",
  "4501": " Julie",
  "4502": " Inky",
  "4503": " Good",
  "4504": " Gia",
  "4505": " Elly",
  "4506": " Cl",
  "4507": " Bloom",
  "4508": " Binky",
  "4509": " Biggie",
  "4510": " Ally",
  "4511": " Aunt",
  "4512": "ym",
  "4513": "ween",
  "4514": "wards",
  "4515": "veled",
  "4516": "vice",
  "4517": "uesday",
  "4518": "tt",
  "4519": "tti",
  "4520": "te",
  "4521": "str",
  "4522": "stick",
  "4523": "shion",
  "4524": "son",
  "4525": "riage",
  "4526": "rect",
  "4527": "right",
  "4528": "ounce",
  "4529": "ouise",
  "4530": "orch",
  "4531": "ops",
  "4532": "oves",
  "4533": "nda",
  "4534": "noon",
  "4535": "mine",
  "4536": "men",
  "4537": "mble",
  "4538": "itched",
  "4539": "ishing",
  "4540": "ippin",
  "4541": "iggy",
  "4542": "ifi",
  "4543": "iel",
  "4544": "hetti",
  "4545": "ges",
  "4546": "fee",
  "4547": "ffee",
  "4548": "fast",
  "4549": "ecially",
  "4550": "ecause",
  "4551": "ef",
  "4552": "ddler",
  "4553": "ded",
  "4554": "axi",
  "4555": "ating",
  "4556": "arlie",
  "4557": "aky",
  "4558": "aghetti",
  "4559": "agers",
  "4560": "achel",
  "4561": "apping",
  "4562": "aby",
  "4563": "Yay",
  "4564": "Welcome",
  "4565": "Moral",
  "4566": "Mimi",
  "4567": "Mark",
  "4568": "Le",
  "4569": "Jazz",
  "4570": "Ha",
  "4571": "Em",
  "4572": "Ella",
  "4573": "Bobo",
  "4574": "Bella",
  "4575": "All",
  "4576": "..",
  "4577": "'.",
  "4578": " zigzag",
  "4579": " writ",
  "4580": " wisdom",
  "4581": " whistling",
  "4582": " wheels",
  "4583": " wob",
  "4584": " villagers",
  "4585": " vanished",
  "4586": " vet",
  "4587": " unpack",
  "4588": " university",
  "4589": " tremble",
  "4590": " traveled",
  "4591": " trail",
  "4592": " tornado",
  "4593": " tongue",
  "4594": " tour",
  "4595": " toddler",
  "4596": " theirs",
  "4597": " theater",
  "4598": " thumb",
  "4599": " thread",
  "4600": " thief",
  "4601": " taxi",
  "4602": " tasks",
  "4603": " surprises",
  "4604": " suggested",
  "4605": " stretching",
  "4606": " strings",
  "4607": " spider",
  "4608": " spike",
  "4609": " spaghetti",
  "4610": " soil",
  "4611": " sneezed",
  "4612": " slap",
  "4613": " shrugged",
  "4614": " shined",
  "4615": " shore",
  "4616": " served",
  "4617": " scooped",
  "4618": " safely",
  "4619": " sir",
  "4620": " resp",
  "4621": " recorded",
  "4622": " recognize",
  "4623": " reef",
  "4624": " rainy",
  "4625": " pushing",
  "4626": " proudly",
  "4627": " pride",
  "4628": " planted",
  "4629": " pinch",
  "4630": " permit",
  "4631": " pastel",
  "4632": " panda",
  "4633": " porch",
  "4634": " pages",
  "4635": " pad",
  "4636": " older",
  "4637": " object",
  "4638": " noon",
  "4639": " nobody",
  "4640": " newspaper",
  "4641": " necklace",
  "4642": " mole",
  "4643": " melon",
  "4644": " marriage",
  "4645": " manage",
  "4646": " mice",
  "4647": " may",
  "4648": " listens",
  "4649": " lipstick",
  "4650": " letting",
  "4651": " laid",
  "4652": " knees",
  "4653": " known",
  "4654": " keeping",
  "4655": " jogged",
  "4656": " increase",
  "4657": " ignore",
  "4658": " ideas",
  "4659": " human",
  "4660": " horses",
  "4661": " hoping",
  "4662": " herb",
  "4663": " heal",
  "4664": " hall",
  "4665": " hay",
  "4666": " grandson",
  "4667": " glowing",
  "4668": " gloves",
  "4669": " gifts",
  "4670": " gym",
  "4671": " gust",
  "4672": " grill",
  "4673": " forgotten",
  "4674": " folded",
  "4675": " flapped",
  "4676": " fashion",
  "4677": " fet",
  "4678": " energy",
  "4679": " dressed",
  "4680": " demanded",
  "4681": " delighted",
  "4682": " delay",
  "4683": " during",
  "4684": " dive",
  "4685": " cuts",
  "4686": " cricket",
  "4687": " created",
  "4688": " crash",
  "4689": " cras",
  "4690": " counter",
  "4691": " coffee",
  "4692": " climbs",
  "4693": " climbing",
  "4694": " check",
  "4695": " chases",
  "4696": " choose",
  "4697": " cho",
  "4698": " chang",
  "4699": " chance",
  "4700": " caring",
  "4701": " caused",
  "4702": " buttons",
  "4703": " bumped",
  "4704": " buckets",
  "4705": " breakfast",
  "4706": " bleed",
  "4707": " blouse",
  "4708": " blood",
  "4709": " between",
  "4710": " bears",
  "4711": " bang",
  "4712": " baking",
  "4713": " baked",
  "4714": " bother",
  "4715": " attach",
  "4716": " alright",
  "4717": " agrees",
  "4718": " afternoon",
  "4719": " aeroplane",
  "4720": " Zip",
  "4721": " Where",
  "4722": " Water",
  "4723": " Tuesday",
  "4724": " Spike",
  "4725": " Sammy",
  "4726": " Sandy",
  "4727": " Rudy",
  "4728": " Rude",
  "4729": " Rose",
  "4730": " Ray",
  "4731": " Pepper",
  "4732": " People",
  "4733": " Pippin",
  "4734": " Olive",
  "4735": " Nod",
  "4736": " Mill",
  "4737": " Like",
  "4738": " Laura",
  "4739": " Johnny",
  "4740": " Jimmy",
  "4741": " Its",
  "4742": " Hop",
  "4743": " Hippy",
  "4744": " Harry",
  "4745": " Flossy",
  "4746": " Daniel",
  "4747": " Charlie",
  "4748": " Bow",
  "4749": " Bear",
  "4750": " Ab",
  "4751": "zzy",
  "4752": "ws",
  "4753": "walk",
  "4754": "unnies",
  "4755": "undry",
  "4756": "ugsy",
  "4757": "tions",
  "4758": "thank",
  "4759": "terday",
  "4760": "ther",
  "4761": "serve",
  "4762": "sit",
  "4763": "rmomet",
  "4764": "rmometer",
  "4765": "reeze",
  "4766": "reck",
  "4767": "rawberries",
  "4768": "riger",
  "4769": "rigerator",
  "4770": "pted",
  "4771": "poon",
  "4772": "pecially",
  "4773": "pare",
  "4774": "osie",
  "4775": "opes",
  "4776": "omm",
  "4777": "ommend",
  "4778": "omb",
  "4779": "osed",
  "4780": "mother",
  "4781": "mand",
  "4782": "manda",
  "4783": "lu",
  "4784": "lter",
  "4785": "look",
  "4786": "keep",
  "4787": "keeper",
  "4788": "ka",
  "4789": "ircle",
  "4790": "inde",
  "4791": "ilet",
  "4792": "igail",
  "4793": "ika",
  "4794": "ibbit",
  "4795": "house",
  "4796": "fuse",
  "4797": "ffic",
  "4798": "fant",
  "4799": "face",
  "4800": "eah",
  "4801": "eked",
  "4802": "ding",
  "4803": "ccer",
  "4804": "balls",
  "4805": "araway",
  "4806": "antly",
  "4807": "ampoo",
  "4808": "allen",
  "4809": "alph",
  "4810": "aid",
  "4811": "Yumi",
  "4812": "Yeah",
  "4813": "These",
  "4814": "Surpr",
  "4815": "Ribbit",
  "4816": "Not",
  "4817": "Momo",
  "4818": "Mary",
  "4819": "Mama",
  "4820": "Jill",
  "4821": "Grandpa",
  "4822": "Emma",
  "4823": " —",
  "4824": " writes",
  "4825": " whisper",
  "4826": " watches",
  "4827": " waste",
  "4828": " wreck",
  "4829": " west",
  "4830": " visited",
  "4831": " urge",
  "4832": " unhappy",
  "4833": " unf",
  "4834": " trembling",
  "4835": " trains",
  "4836": " tracks",
  "4837": " traffic",
  "4838": " tomato",
  "4839": " toilet",
  "4840": " toes",
  "4841": " thermometer",
  "4842": " teaspoon",
  "4843": " tut",
  "4844": " sweeties",
  "4845": " surface",
  "4846": " supposed",
  "4847": " suggest",
  "4848": " struggle",
  "4849": " struck",
  "4850": " stomach",
  "4851": " stove",
  "4852": " sty",
  "4853": " sparkled",
  "4854": " solved",
  "4855": " soccer",
  "4856": " sne",
  "4857": " sidewalk",
  "4858": " shelter",
  "4859": " shot",
  "4860": " shampoo",
  "4861": " searching",
  "4862": " seats",
  "4863": " scolded",
  "4864": " scri",
  "4865": " screw",
  "4866": " sailor",
  "4867": " sailing",
  "4868": " since",
  "4869": " rooms",
  "4870": " ringing",
  "4871": " ribbit",
  "4872": " regret",
  "4873": " refrigerator",
  "4874": " reverse",
  "4875": " release",
  "4876": " reinde",
  "4877": " refuse",
  "4878": " rags",
  "4879": " rushed",
  "4880": " pupil",
  "4881": " pulls",
  "4882": " puddles",
  "4883": " problems",
  "4884": " prepare",
  "4885": " plastic",
  "4886": " pinched",
  "4887": " perfectly",
  "4888": " pedals",
  "4889": " peanut",
  "4890": " peeked",
  "4891": " patted",
  "4892": " pra",
  "4893": " port",
  "4894": " officer",
  "4895": " observe",
  "4896": " oy",
  "4897": " oak",
  "4898": " novel",
  "4899": " news",
  "4900": " neighbors",
  "4901": " neat",
  "4902": " none",
  "4903": " mystery",
  "4904": " movies",
  "4905": " mouths",
  "4906": " matches",
  "4907": " married",
  "4908": " mall",
  "4909": " loaded",
  "4910": " lions",
  "4911": " lawn",
  "4912": " landscape",
  "4913": " laundry",
  "4914": " laser",
  "4915": " lap",
  "4916": " kneel",
  "4917": " knob",
  "4918": " knight",
  "4919": " jewelry",
  "4920": " invit",
  "4921": " inclu",
  "4922": " infant",
  "4923": " imagined",
  "4924": " imagination",
  "4925": " helper",
  "4926": " hanging",
  "4927": " handed",
  "4928": " hut",
  "4929": " grandmother",
  "4930": " grin",
  "4931": " golden",
  "4932": " gasped",
  "4933": " frowned",
  "4934": " flea",
  "4935": " flap",
  "4936": " fishing",
  "4937": " falling",
  "4938": " fu",
  "4939": " faraway",
  "4940": " exercise",
  "4941": " especially",
  "4942": " envelope",
  "4943": " entr",
  "4944": " doggy",
  "4945": " dishes",
  "4946": " disag",
  "4947": " dared",
  "4948": " cuddle",
  "4949": " counting",
  "4950": " company",
  "4951": " comforted",
  "4952": " colourful",
  "4953": " collected",
  "4954": " claws",
  "4955": " clown",
  "4956": " chirp",
  "4957": " challen",
  "4958": " celebr",
  "4959": " catching",
  "4960": " cared",
  "4961": " cell",
  "4962": " buzz",
  "4963": " brings",
  "4964": " boots",
  "4965": " biting",
  "4966": " bunnies",
  "4967": " bomb",
  "4968": " attached",
  "4969": " apologize",
  "4970": " allowed",
  "4971": " advice",
  "4972": " acting",
  "4973": " Ziggy",
  "4974": " Whist",
  "4975": " Sophie",
  "4976": " See",
  "4977": " Rachel",
  "4978": " Mo",
  "4979": " Milly",
  "4980": " Lee",
  "4981": " Lipp",
  "4982": " Kate",
  "4983": " June",
  "4984": " Jessie",
  "4985": " Jason",
  "4986": " Ivy",
  "4987": " Honey",
  "4988": " George",
  "4989": " Fifi",
  "4990": " Everything",
  "4991": " Carlton",
  "4992": " Circle",
  "4993": " Bounce",
  "4994": " Betty",
  "4995": " Baby",
  "4996": " Anne",
  "4997": " ow",
  "4998": " \n ",
  "4999": "zes",
  "5000": "ygen",
  "5001": "xygen",
  "5002": "umes",
  "5003": "uggles",
  "5004": "uggage",
  "5005": "uckily",
  "5006": "uctions",
  "5007": "time",
  "5008": "structions",
  "5009": "redient",
  "5010": "redients",
  "5011": "rection",
  "5012": "reat",
  "5013": "quare",
  "5014": "orse",
  "5015": "orill",
  "5016": "orilla",
  "5017": "oons",
  "5018": "onn",
  "5019": "onic",
  "5020": "onica",
  "5021": "oga",
  "5022": "ngth",
  "5023": "ne",
  "5024": "mergen",
  "5025": "mergency",
  "5026": "medi",
  "5027": "mediately",
  "5028": "munk",
  "5029": "mm",
  "5030": "lowers",
  "5031": "la",
  "5032": "laimed",
  "5033": "kins",
  "5034": "izing",
  "5035": "issa",
  "5036": "isty",
  "5037": "ipmunk",
  "5038": "ingredients",
  "5039": "inda",
  "5040": "ining",
  "5041": "illboard",
  "5042": "ific",
  "5043": "ickey",
  "5044": "ices",
  "5045": "icers",
  "5046": "ived",
  "5047": "hter",
  "5048": "heart",
  "5049": "hood",
  "5050": "ffort",
  "5051": "fl",
  "5052": "fied",
  "5053": "ero",
  "5054": "enry",
  "5055": "ement",
  "5056": "eds",
  "5057": "eze",
  "5058": "ckey",
  "5059": "boy",
  "5060": "arnt",
  "5061": "arissa",
  "5062": "affle",
  "5063": "Yoga",
  "5064": "Woof",
  "5065": "With",
  "5066": "Today",
  "5067": "Teddy",
  "5068": "Surprise",
  "5069": "Ru",
  "5070": "Remy",
  "5071": "Remember",
  "5072": "Peter",
  "5073": "Penny",
  "5074": "Next",
  "5075": "Mickey",
  "5076": "May",
  "5077": "Leo",
  "5078": "Lola",
  "5079": "Everyone",
  "5080": "During",
  "5081": "Day",
  "5082": "Ch",
  "5083": "Bugsy",
  "5084": "Bird",
  "5085": "Ah",
  "5086": "Ab",
  "5087": "'?\"",
  "5088": " zero",
  "5089": " youth",
  "5090": " yawn",
  "5091": " worth",
  "5092": " worse",
  "5093": " windows",
  "5094": " winter",
  "5095": " winner",
  "5096": " whenever",
  "5097": " whatever",
  "5098": " whip",
  "5099": " welcomed",
  "5100": " washing",
  "5101": " wound",
  "5102": " wire",
  "5103": " understanding",
  "5104": " unl",
  "5105": " twisty",
  "5106": " twir",
  "5107": " tutor",
  "5108": " turning",
  "5109": " trapped",
  "5110": " throwing",
  "5111": " tub",
  "5112": " symbols",
  "5113": " sweetheart",
  "5114": " sunflowers",
  "5115": " sunlight",
  "5116": " style",
  "5117": " strength",
  "5118": " stomped",
  "5119": " stealing",
  "5120": " stays",
  "5121": " strawberries",
  "5122": " splashing",
  "5123": " sparkling",
  "5124": " sprink",
  "5125": " spit",
  "5126": " spikes",
  "5127": " spade",
  "5128": " space",
  "5129": " sounded",
  "5130": " sorted",
  "5131": " soak",
  "5132": " snuggled",
  "5133": " snowballs",
  "5134": " sneezes",
  "5135": " snapped",
  "5136": " signs",
  "5137": " shrinking",
  "5138": " shopping",
  "5139": " shivering",
  "5140": " shadows",
  "5141": " shaking",
  "5142": " screams",
  "5143": " scratched",
  "5144": " scattering",
  "5145": " scattered",
  "5146": " salt",
  "5147": " suit",
  "5148": " sizes",
  "5149": " simp",
  "5150": " root",
  "5151": " rides",
  "5152": " restore",
  "5153": " respon",
  "5154": " resc",
  "5155": " reminded",
  "5156": " reindeer",
  "5157": " received",
  "5158": " recommend",
  "5159": " requ",
  "5160": " rang",
  "5161": " raining",
  "5162": " rained",
  "5163": " raft",
  "5164": " quack",
  "5165": " pulling",
  "5166": " provide",
  "5167": " prett",
  "5168": " polished",
  "5169": " polish",
  "5170": " poss",
  "5171": " pleased",
  "5172": " plays",
  "5173": " perfume",
  "5174": " pens",
  "5175": " penny",
  "5176": " peanuts",
  "5177": " peel",
  "5178": " peaches",
  "5179": " panc",
  "5180": " pies",
  "5181": " ours",
  "5182": " organize",
  "5183": " ordered",
  "5184": " officers",
  "5185": " oxygen",
  "5186": " ol",
  "5187": " napkin",
  "5188": " nut",
  "5189": " nine",
  "5190": " myself",
  "5191": " moat",
  "5192": " markers",
  "5193": " loops",
  "5194": " loose",
  "5195": " listening",
  "5196": " lightning",
  "5197": " lets",
  "5198": " learnt",
  "5199": " laughter",
  "5200": " luggage",
  "5201": " kicking",
  "5202": " jogging",
  "5203": " introduce",
  "5204": " instructions",
  "5205": " impressed",
  "5206": " impro",
  "5207": " ignored",
  "5208": " hoops",
  "5209": " hockey",
  "5210": " hesit",
  "5211": " heel",
  "5212": " happier",
  "5213": " hadn",
  "5214": " guessed",
  "5215": " growls",
  "5216": " grown",
  "5217": " grant",
  "5218": " goal",
  "5219": " genie",
  "5220": " gears",
  "5221": " gorilla",
  "5222": " gain",
  "5223": " frogs",
  "5224": " fort",
  "5225": " fork",
  "5226": " floating",
  "5227": " fleas",
  "5228": " flaps",
  "5229": " flood",
  "5230": " explored",
  "5231": " exclaimed",
  "5232": " expect",
  "5233": " evening",
  "5234": " erasers",
  "5235": " envelopes",
  "5236": " entrance",
  "5237": " encourage",
  "5238": " emergency",
  "5239": " effort",
  "5240": " driving",
  "5241": " disagreed",
  "5242": " discu",
  "5243": " direction",
  "5244": " delivered",
  "5245": " curled",
  "5246": " cupboard",
  "5247": " crawl",
  "5248": " crashed",
  "5249": " crunch",
  "5250": " country",
  "5251": " costumes",
  "5252": " colours",
  "5253": " choice",
  "5254": " chairs",
  "5255": " chipmunk",
  "5256": " celebrate",
  "5257": " catches",
  "5258": " calling",
  "5259": " cakes",
  "5260": " bye",
  "5261": " buses",
  "5262": " breaking",
  "5263": " breeze",
  "5264": " blink",
  "5265": " belly",
  "5266": " beg",
  "5267": " beamed",
  "5268": " barrel",
  "5269": " bones",
  "5270": " billboard",
  "5271": " attention",
  "5272": " arrive",
  "5273": " area",
  "5274": " army",
  "5275": " appreciate",
  "5276": " applauded",
  "5277": " appear",
  "5278": " answers",
  "5279": " angels",
  "5280": " admir",
  "5281": " adding",
  "5282": " accepted",
  "5283": " Zigzag",
  "5284": " Without",
  "5285": " Whistler",
  "5286": " Who",
  "5287": " Up",
  "5288": " Strawberry",
  "5289": " Star",
  "5290": " Snuggles",
  "5291": " Sunny",
  "5292": " Square",
  "5293": " Rosie",
  "5294": " Remember",
  "5295": " Oliver",
  "5296": " Not",
  "5297": " Mummy",
  "5298": " Mop",
  "5299": " Mina",
  "5300": " Maisy",
  "5301": " Maggie",
  "5302": " Leave",
  "5303": " Louise",
  "5304": " Lola",
  "5305": " Little",
  "5306": " Kelsie",
  "5307": " Horse",
  "5308": " Henry",
  "5309": " Have",
  "5310": " Gerry",
  "5311": " Gary",
  "5312": " Freddy",
  "5313": " For",
  "5314": " Everyday",
  "5315": " Dot",
  "5316": " Did",
  "5317": " Clarissa",
  "5318": " Cow",
  "5319": " Birdie",
  "5320": " Are",
  "5321": " Amanda",
  "5322": " x",
  "5323": " ingredients",
  "5324": " Yumi",
  "5325": "”.",
  "5326": "zer",
  "5327": "year",
  "5328": "work",
  "5329": "wh",
  "5330": "wed",
  "5331": "utter",
  "5332": "ustom",
  "5333": "ustomer",
  "5334": "ushes",
  "5335": "uct",
  "5336": "uctantly",
  "5337": "ucked",
  "5338": "ubway",
  "5339": "uzy",
  "5340": "used",
  "5341": "uppy",
  "5342": "ues",
  "5343": "tha",
  "5344": "sters",
  "5345": "scope",
  "5346": "roscope",
  "5347": "roc",
  "5348": "render",
  "5349": "rely",
  "5350": "ru",
  "5351": "rr",
  "5352": "rist",
  "5353": "ristm",
  "5354": "ristmas",
  "5355": "quip",
  "5356": "quipment",
  "5357": "plain",
  "5358": "ows",
  "5359": "ots",
  "5360": "ores",
  "5361": "ori",
  "5362": "onnie",
  "5363": "ony",
  "5364": "omeday",
  "5365": "oke",
  "5366": "nit",
  "5367": "niture",
  "5368": "naughty",
  "5369": "mory",
  "5370": "mare",
  "5371": "mares",
  "5372": "lora",
  "5373": "looking",
  "5374": "leton",
  "5375": "lier",
  "5376": "len",
  "5377": "keleton",
  "5378": "iverse",
  "5379": "ition",
  "5380": "istol",
  "5381": "ips",
  "5382": "ipes",
  "5383": "iona",
  "5384": "igers",
  "5385": "igate",
  "5386": "ificate",
  "5387": "ides",
  "5388": "ictory",
  "5389": "icroscope",
  "5390": "icing",
  "5391": "hind",
  "5392": "gers",
  "5393": "flakes",
  "5394": "freeze",
  "5395": "ethro",
  "5396": "estigate",
  "5397": "eside",
  "5398": "ertificate",
  "5399": "ecture",
  "5400": "eks",
  "5401": "eally",
  "5402": "dled",
  "5403": "dged",
  "5404": "dam",
  "5405": "choo",
  "5406": "cho",
  "5407": "cious",
  "5408": "bey",
  "5409": "bug",
  "5410": "bage",
  "5411": "awk",
  "5412": "avid",
  "5413": "ata",
  "5414": "ans",
  "5415": "anes",
  "5416": "acky",
  "5417": "aced",
  "5418": "aa",
  "5419": "Zoom",
  "5420": "Your",
  "5421": "Un",
  "5422": "Tr",
  "5423": "Tina",
  "5424": "Susie",
  "5425": "Slow",
  "5426": "Oops",
  "5427": "Miss",
  "5428": "Mike",
  "5429": "Maisy",
  "5430": "Luna",
  "5431": "Lulu",
  "5432": "Linda",
  "5433": "Lilly",
  "5434": "Kate",
  "5435": "Ivy",
  "5436": "Hold",
  "5437": "Frank",
  "5438": "Fred",
  "5439": "For",
  "5440": "Fine",
  "5441": "Days",
  "5442": "Dan",
  "5443": "Chirp",
  "5444": "Birdy",
  "5445": "Before",
  "5446": "Bad",
  "5447": "Baa",
  "5448": "?\",",
  "5449": "!'",
  "5450": " –",
  "5451": " zooming",
  "5452": " zoomed",
  "5453": " yawned",
  "5454": " yucky",
  "5455": " wrapping",
  "5456": " worms",
  "5457": " wobb",
  "5458": " wishing",
  "5459": " winks",
  "5460": " wiggled",
  "5461": " weeds",
  "5462": " watered",
  "5463": " warning",
  "5464": " wandered",
  "5465": " waits",
  "5466": " wagging",
  "5467": " waist",
  "5468": " wid",
  "5469": " vanish",
  "5470": " vowed",
  "5471": " victory",
  "5472": " untie",
  "5473": " unlocked",
  "5474": " unfold",
  "5475": " underground",
  "5476": " universe",
  "5477": " tools",
  "5478": " tonight",
  "5479": " toaster",
  "5480": " teasing",
  "5481": " tummy",
  "5482": " tigers",
  "5483": " tide",
  "5484": " tart",
  "5485": " tank",
  "5486": " switched",
  "5487": " surround",
  "5488": " surrender",
  "5489": " struggling",
  "5490": " sticky",
  "5491": " sticker",
  "5492": " steep",
  "5493": " starting",
  "5494": " sting",
  "5495": " stare",
  "5496": " stall",
  "5497": " spots",
  "5498": " somewhere",
  "5499": " soaring",
  "5500": " soared",
  "5501": " snowflakes",
  "5502": " sneaky",
  "5503": " slower",
  "5504": " slowed",
  "5505": " skill",
  "5506": " seeing",
  "5507": " scratches",
  "5508": " scaring",
  "5509": " sadness",
  "5510": " subway",
  "5511": " someday",
  "5512": " skeleton",
  "5513": " six",
  "5514": " rush",
  "5515": " rule",
  "5516": " ruining",
  "5517": " rolls",
  "5518": " rocking",
  "5519": " robots",
  "5520": " rip",
  "5521": " resting",
  "5522": " respons",
  "5523": " rescue",
  "5524": " reminder",
  "5525": " reluctantly",
  "5526": " relief",
  "5527": " recording",
  "5528": " recognized",
  "5529": " ranger",
  "5530": " racc",
  "5531": " rust",
  "5532": " row",
  "5533": " pupils",
  "5534": " pumpkins",
  "5535": " project",
  "5536": " prettier",
  "5537": " pretends",
  "5538": " precious",
  "5539": " prayed",
  "5540": " praised",
  "5541": " prove",
  "5542": " postman",
  "5543": " polishing",
  "5544": " pose",
  "5545": " playtime",
  "5546": " placed",
  "5547": " pinata",
  "5548": " peek",
  "5549": " patterns",
  "5550": " pastry",
  "5551": " parade",
  "5552": " papers",
  "5553": " papa",
  "5554": " pur",
  "5555": " pistol",
  "5556": " paused",
  "5557": " oyster",
  "5558": " offer",
  "5559": " obey",
  "5560": " nightmares",
  "5561": " newsboy",
  "5562": " nations",
  "5563": " naps",
  "5564": " nails",
  "5565": " nicer",
  "5566": " napping",
  "5567": " mustache",
  "5568": " motion",
  "5569": " medium",
  "5570": " measuring",
  "5571": " memory",
  "5572": " marching",
  "5573": " mane",
  "5574": " microscope",
  "5575": " math",
  "5576": " longest",
  "5577": " locked",
  "5578": " lie",
  "5579": " ladybug",
  "5580": " luck",
  "5581": " lined",
  "5582": " lecture",
  "5583": " knocks",
  "5584": " kisses",
  "5585": " jewels",
  "5586": " jets",
  "5587": " invitation",
  "5588": " investigate",
  "5589": " improve",
  "5590": " importance",
  "5591": " immediately",
  "5592": " hunter",
  "5593": " hits",
  "5594": " history",
  "5595": " helmets",
  "5596": " headed",
  "5597": " hi",
  "5598": " growled",
  "5599": " grinned",
  "5600": " goat",
  "5601": " garbage",
  "5602": " gross",
  "5603": " groc",
  "5604": " furniture",
  "5605": " fuel",
  "5606": " freezer",
  "5607": " follows",
  "5608": " floated",
  "5609": " flat",
  "5610": " firemen",
  "5611": " fields",
  "5612": " fetch",
  "5613": " freed",
  "5614": " fought",
  "5615": " erase",
  "5616": " entered",
  "5617": " eaten",
  "5618": " easily",
  "5619": " earlier",
  "5620": " eagerly",
  "5621": " event",
  "5622": " equipment",
  "5623": " echo",
  "5624": " dusty",
  "5625": " drivers",
  "5626": " dresses",
  "5627": " dollhouse",
  "5628": " discuss",
  "5629": " discovery",
  "5630": " dinosaurs",
  "5631": " dipped",
  "5632": " dried",
  "5633": " cuddled",
  "5634": " crunchy",
  "5635": " creation",
  "5636": " crackers",
  "5637": " cooler",
  "5638": " content",
  "5639": " competition",
  "5640": " comets",
  "5641": " complain",
  "5642": " copper",
  "5643": " coats",
  "5644": " chewing",
  "5645": " chewed",
  "5646": " chasing",
  "5647": " changing",
  "5648": " celeb",
  "5649": " carries",
  "5650": " calmed",
  "5651": " cable",
  "5652": " customer",
  "5653": " cork",
  "5654": " certificate",
  "5655": " buzzing",
  "5656": " burst",
  "5657": " burning",
  "5658": " buried",
  "5659": " brightly",
  "5660": " brushes",
  "5661": " blueber",
  "5662": " bleeding",
  "5663": " believed",
  "5664": " beef",
  "5665": " barrels",
  "5666": " badly",
  "5667": " barely",
  "5668": " beside",
  "5669": " ann",
  "5670": " ago",
  "5671": " actually",
  "5672": " accept",
  "5673": " aimed",
  "5674": " ach",
  "5675": " Want",
  "5676": " Waffle",
  "5677": " Un",
  "5678": " Those",
  "5679": " Someone",
  "5680": " Suzy",
  "5681": " Sky",
  "5682": " Ruby",
  "5683": " Ralph",
  "5684": " Puppy",
  "5685": " Pizza",
  "5686": " Pinky",
  "5687": " Ow",
  "5688": " Our",
  "5689": " Momma",
  "5690": " Martha",
  "5691": " Maria",
  "5692": " Monica",
  "5693": " Lori",
  "5694": " Later",
  "5695": " Hope",
  "5696": " Grace",
  "5697": " Flora",
  "5698": " Eventually",
  "5699": " Din",
  "5700": " David",
  "5701": " Christmas",
  "5702": " Auntie",
  "5703": " Abby",
  "5704": " Ant",
  "5705": " Yes",
  "5706": " X",
  "5707": "  ",
  "5708": "yth",
  "5709": "ythm",
  "5710": "water",
  "5711": "wamp",
  "5712": "vers",
  "5713": "veal",
  "5714": "vi",
  "5715": "utious",
  "5716": "utiously",
  "5717": "usks",
  "5718": "usb",
  "5719": "usband",
  "5720": "urry",
  "5721": "urb",
  "5722": "uney",
  "5723": "unday",
  "5724": "unes",
  "5725": "unately",
  "5726": "umbs",
  "5727": "ummer",
  "5728": "umble",
  "5729": "ults",
  "5730": "ucture",
  "5731": "uced",
  "5732": "ternet",
  "5733": "ts",
  "5734": "tled",
  "5735": "rian",
  "5736": "retend",
  "5737": "res",
  "5738": "ratul",
  "5739": "raged",
  "5740": "runey",
  "5741": "rown",
  "5742": "rimp",
  "5743": "ppings",
  "5744": "plash",
  "5745": "packed",
  "5746": "ouch",
  "5747": "osting",
  "5748": "osen",
  "5749": "ophia",
  "5750": "ongratul",
  "5751": "omeone",
  "5752": "omas",
  "5753": "oved",
  "5754": "oors",
  "5755": "neath",
  "5756": "mies",
  "5757": "mel",
  "5758": "melia",
  "5759": "ission",
  "5760": "ishy",
  "5761": "inkling",
  "5762": "inion",
  "5763": "igging",
  "5764": "ifying",
  "5765": "iform",
  "5766": "ids",
  "5767": "ibil",
  "5768": "iving",
  "5769": "iers",
  "5770": "hest",
  "5771": "hello",
  "5772": "hurt",
  "5773": "hile",
  "5774": "ha",
  "5775": "give",
  "5776": "fortunately",
  "5777": "ffles",
  "5778": "erk",
  "5779": "entioned",
  "5780": "enty",
  "5781": "ense",
  "5782": "engers",
  "5783": "eaked",
  "5784": "eed",
  "5785": "doors",
  "5786": "da",
  "5787": "cuse",
  "5788": "cky",
  "5789": "chan",
  "5790": "chanic",
  "5791": "caped",
  "5792": "clock",
  "5793": "cer",
  "5794": "cage",
  "5795": "available",
  "5796": "atched",
  "5797": "apa",
  "5798": "angles",
  "5799": "angers",
  "5800": "anation",
  "5801": "airy",
  "5802": "abbit",
  "5803": "Would",
  "5804": "Watch",
  "5805": "Toby",
  "5806": "Tiny",
  "5807": "Tilly",
  "5808": "Shrink",
  "5809": "Sophia",
  "5810": "Someone",
  "5811": "Silly",
  "5812": "Rise",
  "5813": "Really",
  "5814": "Qu",
  "5815": "Poppy",
  "5816": "Paul",
  "5817": "Our",
  "5818": "Or",
  "5819": "Ollie",
  "5820": "Ok",
  "5821": "Never",
  "5822": "Mrs",
  "5823": "Meow",
  "5824": "Mmm",
  "5825": "Mina",
  "5826": "Mill",
  "5827": "Mika",
  "5828": "Mar",
  "5829": "Maggie",
  "5830": "Luckily",
  "5831": "Kelsie",
  "5832": "Julie",
  "5833": "Jen",
  "5834": "Jason",
  "5835": "Jake",
  "5836": "Happy",
  "5837": "Great",
  "5838": "Get",
  "5839": "George",
  "5840": "Gary",
  "5841": "First",
  "5842": "Eventually",
  "5843": "Ducky",
  "5844": "Chirpy",
  "5845": "Betty",
  "5846": "Because",
  "5847": "Abigail",
  "5848": "Ann",
  "5849": "?\".",
  "5850": "?!\"",
  "5851": "...",
  "5852": "'ve",
  "5853": "\",",
  "5854": "!”.",
  "5855": " zipped",
  "5856": " yoghurt",
  "5857": " yesterday",
  "5858": " yelling",
  "5859": " worker",
  "5860": " wobbling",
  "5861": " wisely",
  "5862": " winking",
  "5863": " winning",
  "5864": " wiggly",
  "5865": " widened",
  "5866": " whiteboard",
  "5867": " weapons",
  "5868": " weeks",
  "5869": " weather",
  "5870": " wanting",
  "5871": " waiter",
  "5872": " waffles",
  "5873": " woof",
  "5874": " wins",
  "5875": " voices",
  "5876": " visiting",
  "5877": " vendors",
  "5878": " urged",
  "5879": " upside",
  "5880": " underwater",
  "5881": " unpacked",
  "5882": " uniform",
  "5883": " twirled",
  "5884": " twin",
  "5885": " twice",
  "5886": " tugged",
  "5887": " tricky",
  "5888": " trembled",
  "5889": " treasures",
  "5890": " tru",
  "5891": " touching",
  "5892": " tool",
  "5893": " toppings",
  "5894": " timer",
  "5895": " throughout",
  "5896": " thorn",
  "5897": " teaching",
  "5898": " taller",
  "5899": " tusks",
  "5900": " tune",
  "5901": " tucked",
  "5902": " tipped",
  "5903": " swooped",
  "5904": " superheroes",
  "5905": " strikes",
  "5906": " structure",
  "5907": " strangers",
  "5908": " storekeeper",
  "5909": " stolen",
  "5910": " sticking",
  "5911": " squirrels",
  "5912": " squishy",
  "5913": " squas",
  "5914": " sprinkles",
  "5915": " spills",
  "5916": " spiders",
  "5917": " spending",
  "5918": " sparkle",
  "5919": " sorts",
  "5920": " soldiers",
  "5921": " soda",
  "5922": " sneaked",
  "5923": " snatched",
  "5924": " snakes",
  "5925": " sledding",
  "5926": " slice",
  "5927": " slapped",
  "5928": " skipping",
  "5929": " sisters",
  "5930": " simple",
  "5931": " shopkeeper",
  "5932": " shield",
  "5933": " settled",
  "5934": " selling",
  "5935": " seconds",
  "5936": " sewed",
  "5937": " scribble",
  "5938": " scribb",
  "5939": " scru",
  "5940": " satis",
  "5941": " salty",
  "5942": " sailors",
  "5943": " summer",
  "5944": " sip",
  "5945": " sigh",
  "5946": " sense",
  "5947": " rubs",
  "5948": " ruby",
  "5949": " robin",
  "5950": " roars",
  "5951": " rocked",
  "5952": " roaring",
  "5953": " rhythm",
  "5954": " request",
  "5955": " remained",
  "5956": " removed",
  "5957": " relaxed",
  "5958": " receive",
  "5959": " recipes",
  "5960": " reaching",
  "5961": " reveal",
  "5962": " rele",
  "5963": " rainbows",
  "5964": " raising",
  "5965": " rats",
  "5966": " quite",
  "5967": " puzzles",
  "5968": " purpose",
  "5969": " puppets",
  "5970": " punishment",
  "5971": " provided",
  "5972": " price",
  "5973": " pressing",
  "5974": " prunes",
  "5975": " powers",
  "5976": " pots",
  "5977": " pointy",
  "5978": " poses",
  "5979": " poking",
  "5980": " pleasure",
  "5981": " plenty",
  "5982": " piles",
  "5983": " photos",
  "5984": " permission",
  "5985": " performed",
  "5986": " peacefully",
  "5987": " peered",
  "5988": " paths",
  "5989": " patience",
  "5990": " pastels",
  "5991": " passengers",
  "5992": " parties",
  "5993": " pancake",
  "5994": " pairs",
  "5995": " paddled",
  "5996": " packages",
  "5997": " ped",
  "5998": " pause",
  "5999": " pant",
  "6000": " palm",
  "6001": " owned",
  "6002": " outdoors",
  "6003": " opinion",
  "6004": " olives",
  "6005": " oh",
  "6006": " odd",
  "6007": " oat",
  "6008": " nests",
  "6009": " nervously",
  "6010": " musicians",
  "6011": " mixing",
  "6012": " minute",
  "6013": " meow",
  "6014": " mechanic",
  "6015": " managing",
  "6016": " magnifying",
  "6017": " mentioned",
  "6018": " master",
  "6019": " logs",
  "6020": " loading",
  "6021": " loving",
  "6022": " lick",
  "6023": " leads",
  "6024": " lung",
  "6025": " lines",
  "6026": " limes",
  "6027": " knelt",
  "6028": " kingdom",
  "6029": " keeps",
  "6030": " joining",
  "6031": " joking",
  "6032": " joked",
  "6033": " isn",
  "6034": " introduced",
  "6035": " included",
  "6036": " internet",
  "6037": " image",
  "6038": " humming",
  "6039": " hops",
  "6040": " hopes",
  "6041": " highest",
  "6042": " hides",
  "6043": " herbs",
  "6044": " hearing",
  "6045": " hen",
  "6046": " height",
  "6047": " hatched",
  "6048": " happiest",
  "6049": " halfway",
  "6050": " husband",
  "6051": " hour",
  "6052": " hitting",
  "6053": " grocery",
  "6054": " grandad",
  "6055": " grabbing",
  "6056": " glittery",
  "6057": " glasses",
  "6058": " gained",
  "6059": " froze",
  "6060": " freedom",
  "6061": " frosting",
  "6062": " forgives",
  "6063": " football",
  "6064": " floaty",
  "6065": " flutter",
  "6066": " finds",
  "6067": " films",
  "6068": " figured",
  "6069": " feeding",
  "6070": " fears",
  "6071": " famil",
  "6072": " fairies",
  "6073": " fasc",
  "6074": " explanation",
  "6075": " exit",
  "6076": " everyday",
  "6077": " everybody",
  "6078": " escaped",
  "6079": " erasing",
  "6080": " entire",
  "6081": " enter",
  "6082": " elephants",
  "6083": " echoed",
  "6084": " eats",
  "6085": " easier",
  "6086": " draws",
  "6087": " drawn",
  "6088": " dragons",
  "6089": " disturb",
  "6090": " displayed",
  "6091": " directions",
  "6092": " differen",
  "6093": " destination",
  "6094": " designs",
  "6095": " deeper",
  "6096": " decorations",
  "6097": " decorating",
  "6098": " decorated",
  "6099": " dears",
  "6100": " dots",
  "6101": " digging",
  "6102": " daisy",
  "6103": " creating",
  "6104": " creations",
  "6105": " crawling",
  "6106": " cracks",
  "6107": " crumbs",
  "6108": " continue",
  "6109": " contain",
  "6110": " comple",
  "6111": " coloring",
  "6112": " colored",
  "6113": " cobwebs",
  "6114": " claps",
  "6115": " click",
  "6116": " clerk",
  "6117": " cheers",
  "6118": " changes",
  "6119": " chosen",
  "6120": " celebrated",
  "6121": " cartoons",
  "6122": " cans",
  "6123": " canes",
  "6124": " camping",
  "6125": " cough",
  "6126": " coug",
  "6127": " cause",
  "6128": " buildings",
  "6129": " budge",
  "6130": " bringing",
  "6131": " bravely",
  "6132": " boom",
  "6133": " blueberries",
  "6134": " blowing",
  "6135": " blocking",
  "6136": " birdie",
  "6137": " birdcage",
  "6138": " begged",
  "6139": " beast",
  "6140": " beat",
  "6141": " bathe",
  "6142": " balan",
  "6143": " badge",
  "6144": " bumpy",
  "6145": " bin",
  "6146": " awhile",
  "6147": " avo",
  "6148": " arrows",
  "6149": " apologized",
  "6150": " apart",
  "6151": " amazement",
  "6152": " amount",
  "6153": " alligators",
  "6154": " ages",
  "6155": " afterwards",
  "6156": " admiration",
  "6157": " adults",
  "6158": " achieve",
  "6159": " acted",
  "6160": " Yesterday",
  "6161": " Whenever",
  "6162": " Welcome",
  "6163": " University",
  "6164": " Tweety",
  "6165": " Tweetie",
  "6166": " Tooth",
  "6167": " Thomas",
  "6168": " Stay",
  "6169": " Sophia",
  "6170": " Something",
  "6171": " Smith",
  "6172": " Sunday",
  "6173": " Soup",
  "6174": " Sorry",
  "6175": " Slow",
  "6176": " Ronnie",
  "6177": " Ready",
  "6178": " Rabbit",
  "6179": " Pruney",
  "6180": " Pilot",
  "6181": " Papa",
  "6182": " Other",
  "6183": " OK",
  "6184": " Moby",
  "6185": " Mika",
  "6186": " Mat",
  "6187": " Joey",
  "6188": " Josh",
  "6189": " Goodbye",
  "6190": " Gina",
  "6191": " Get",
  "6192": " Frank",
  "6193": " Finny",
  "6194": " Follow",
  "6195": " First",
  "6196": " Fairy",
  "6197": " Dinosaur",
  "6198": " Buzzy",
  "6199": " Becky",
  "6200": " Brown",
  "6201": " Brian",
  "6202": " Both",
  "6203": " Because",
  "6204": " Abigail",
  "6205": " Al",
  "6206": " Adam",
  "6207": "zoom",
  "6208": "you",
  "6209": "xcuse",
  "6210": "why",
  "6211": "wra",
  "6212": "whe",
  "6213": "ware",
  "6214": "veness",
  "6215": "vroom",
  "6216": "vend",
  "6217": "vender",
  "6218": "vast",
  "6219": "vastated",
  "6220": "val",
  "6221": "uture",
  "6222": "ution",
  "6223": "usted",
  "6224": "urther",
  "6225": "urday",
  "6226": "ups",
  "6227": "unching",
  "6228": "ummies",
  "6229": "ulpt",
  "6230": "ulpture",
  "6231": "uckled",
  "6232": "uzz",
  "6233": "uild",
  "6234": "ude",
  "6235": "uation",
  "6236": "toed",
  "6237": "tuce",
  "6238": "stri",
  "6239": "stand",
  "6240": "spired",
  "6241": "seek",
  "6242": "seball",
  "6243": "sn",
  "6244": "snap",
  "6245": "sm",
  "6246": "sing",
  "6247": "rrr",
  "6248": "romise",
  "6249": "roat",
  "6250": "roached",
  "6251": "riends",
  "6252": "rios",
  "6253": "riosity",
  "6254": "rilled",
  "6255": "rench",
  "6256": "reverse",
  "6257": "raging",
  "6258": "razy",
  "6259": "raight",
  "6260": "ron",
  "6261": "queaky",
  "6262": "pples",
  "6263": "pom",
  "6264": "pie",
  "6265": "piece",
  "6266": "ousin",
  "6267": "ouncing",
  "6268": "ouis",
  "6269": "orrect",
  "6270": "ored",
  "6271": "order",
  "6272": "ooky",
  "6273": "ooks",
  "6274": "ooed",
  "6275": "ongratulated",
  "6276": "onest",
  "6277": "ometimes",
  "6278": "oming",
  "6279": "ocky",
  "6280": "ocused",
  "6281": "oh",
  "6282": "oe",
  "6283": "namon",
  "6284": "nk",
  "6285": "njoy",
  "6286": "mbers",
  "6287": "mly",
  "6288": "lee",
  "6289": "lue",
  "6290": "live",
  "6291": "lings",
  "6292": "lig",
  "6293": "lige",
  "6294": "lanes",
  "6295": "joyed",
  "6296": "ivity",
  "6297": "ittered",
  "6298": "ithered",
  "6299": "itude",
  "6300": "ities",
  "6301": "itely",
  "6302": "istened",
  "6303": "isten",
  "6304": "isingly",
  "6305": "isks",
  "6306": "ishes",
  "6307": "irthday",
  "6308": "irmly",
  "6309": "inkled",
  "6310": "int",
  "6311": "inse",
  "6312": "inning",
  "6313": "innamon",
  "6314": "inated",
  "6315": "imy",
  "6316": "igning",
  "6317": "igeon",
  "6318": "idel",
  "6319": "idelines",
  "6320": "ibility",
  "6321": "iblings",
  "6322": "iveness",
  "6323": "iren",
  "6324": "hausted",
  "6325": "guing",
  "6326": "found",
  "6327": "form",
  "6328": "fit",
  "6329": "fire",
  "6330": "ety",
  "6331": "etail",
  "6332": "ession",
  "6333": "erosity",
  "6334": "erve",
  "6335": "ern",
  "6336": "ently",
  "6337": "endant",
  "6338": "ening",
  "6339": "ene",
  "6340": "ences",
  "6341": "emies",
  "6342": "emb",
  "6343": "embers",
  "6344": "edic",
  "6345": "edding",
  "6346": "ecting",
  "6347": "eep",
  "6348": "eating",
  "6349": "eat",
  "6350": "eal",
  "6351": "date",
  "6352": "ctly",
  "6353": "ction",
  "6354": "cal",
  "6355": "but",
  "6356": "build",
  "6357": "boo",
  "6358": "bang",
  "6359": "azed",
  "6360": "avors",
  "6361": "aturday",
  "6362": "ashing",
  "6363": "artled",
  "6364": "arling",
  "6365": "arget",
  "6366": "antastic",
  "6367": "angu",
  "6368": "angled",
  "6369": "anan",
  "6370": "anana",
  "6371": "ampered",
  "6372": "ammed",
  "6373": "ambour",
  "6374": "amber",
  "6375": "alling",
  "6376": "aly",
  "6377": "ados",
  "6378": "adly",
  "6379": "ades",
  "6380": "acket",
  "6381": "achines",
  "6382": "aceship",
  "6383": "acation",
  "6384": "aved",
  "6385": "aked",
  "6386": "ailed",
  "6387": "actly",
  "6388": "Zippy",
  "6389": "Whiskers",
  "6390": "Unfortunately",
  "6391": "Uncle",
  "6392": "Uh",
  "6393": "True",
  "6394": "Tweet",
  "6395": "Tony",
  "6396": "Ste",
  "6397": "Sammy",
  "6398": "Swamp",
  "6399": "Sunny",
  "6400": "Splash",
  "6401": "Sp",
  "6402": "Sometimes",
  "6403": "Sad",
  "6404": "Rudy",
  "6405": "Run",
  "6406": "Rose",
  "6407": "Red",
  "6408": "Rec",
  "6409": "Ralph",
  "6410": "Quacky",
  "6411": "Put",
  "6412": "Pizza",
  "6413": "Olive",
  "6414": "Nothing",
  "6415": "Near",
  "6416": "Momma",
  "6417": "Maria",
  "6418": "Many",
  "6419": "Mandy",
  "6420": "Louise",
  "6421": "Lena",
  "6422": "Jump",
  "6423": "Jethro",
  "6424": "Hurry",
  "6425": "Hmm",
  "6426": "Grace",
  "6427": "Freddy",
  "6428": "Friends",
  "6429": "Freeze",
  "6430": "Fiona",
  "6431": "Excuse",
  "6432": "Ew",
  "6433": "Elly",
  "6434": "Eat",
  "6435": "Drink",
  "6436": "Doggy",
  "6437": "Danger",
  "6438": "Coco",
  "6439": "Chew",
  "6440": "Che",
  "6441": "Cat",
  "6442": "Benny",
  "6443": "Beware",
  "6444": "Behind",
  "6445": "Beep",
  "6446": "Brrr",
  "6447": "Bow",
  "6448": "Blue",
  "6449": "Bill",
  "6450": "Big",
  "6451": "Bessie",
  "6452": "Bang",
  "6453": "Back",
  "6454": "Abby",
  "6455": "Aw",
  "6456": "An",
  "6457": "Amelia",
  "6458": "Achoo",
  "6459": ".'",
  "6460": ",'",
  "6461": "'.\"",
  "6462": "!'.",
  "6463": " zebras",
  "6464": " yourselves",
  "6465": " yelp",
  "6466": " wraps",
  "6467": " works",
  "6468": " worn",
  "6469": " wonders",
  "6470": " wobble",
  "6471": " wisest",
  "6472": " wiping",
  "6473": " wipes",
  "6474": " windy",
  "6475": " whistled",
  "6476": " wherever",
  "6477": " wears",
  "6478": " weight",
  "6479": " waters",
  "6480": " wasting",
  "6481": " warnings",
  "6482": " warmer",
  "6483": " wandering",
  "6484": " wakes",
  "6485": " waded",
  "6486": " wife",
  "6487": " wedding",
  "6488": " vines",
  "6489": " vacation",
  "6490": " usual",
  "6491": " urges",
  "6492": " underneath",
  "6493": " unwra",
  "6494": " united",
  "6495": " twisting",
  "6496": " twinkling",
  "6497": " tweet",
  "6498": " truly",
  "6499": " trips",
  "6500": " tricked",
  "6501": " triangles",
  "6502": " trad",
  "6503": " tops",
  "6504": " tore",
  "6505": " tone",
  "6506": " tiptoed",
  "6507": " tidying",
  "6508": " tickets",
  "6509": " tickles",
  "6510": " tickled",
  "6511": " tickle",
  "6512": " thud",
  "6513": " throat",
  "6514": " thrilled",
  "6515": " terrified",
  "6516": " teamwork",
  "6517": " teaches",
  "6518": " teased",
  "6519": " tastiest",
  "6520": " tastes",
  "6521": " tapping",
  "6522": " tummies",
  "6523": " tumbled",
  "6524": " tested",
  "6525": " target",
  "6526": " tangled",
  "6527": " tambour",
  "6528": " swims",
  "6529": " sweets",
  "6530": " sweating",
  "6531": " swap",
  "6532": " surrounded",
  "6533": " studying",
  "6534": " struggled",
  "6535": " striped",
  "6536": " strip",
  "6537": " streets",
  "6538": " streaming",
  "6539": " stole",
  "6540": " steer",
  "6541": " stung",
  "6542": " stumble",
  "6543": " straight",
  "6544": " stitch",
  "6545": " stern",
  "6546": " stacked",
  "6547": " stable",
  "6548": " squashes",
  "6549": " squares",
  "6550": " squawk",
  "6551": " squaw",
  "6552": " springing",
  "6553": " spraying",
  "6554": " sports",
  "6555": " spoons",
  "6556": " spoken",
  "6557": " speaking",
  "6558": " spooky",
  "6559": " spat",
  "6560": " spades",
  "6561": " spaceship",
  "6562": " sooner",
  "6563": " sometime",
  "6564": " solving",
  "6565": " softest",
  "6566": " sore",
  "6567": " sobbed",
  "6568": " snuggles",
  "6569": " snows",
  "6570": " sniffs",
  "6571": " sneak",
  "6572": " snug",
  "6573": " snuck",
  "6574": " smoothly",
  "6575": " smash",
  "6576": " sleeps",
  "6577": " slimy",
  "6578": " slammed",
  "6579": " skills",
  "6580": " skunk",
  "6581": " situation",
  "6582": " sits",
  "6583": " single",
  "6584": " simply",
  "6585": " shrugs",
  "6586": " shrank",
  "6587": " shorts",
  "6588": " shops",
  "6589": " shooting",
  "6590": " shirts",
  "6591": " shelves",
  "6592": " shivers",
  "6593": " serving",
  "6594": " sending",
  "6595": " seller",
  "6596": " seems",
  "6597": " seven",
  "6598": " scrubbing",
  "6599": " scribbled",
  "6600": " screaming",
  "6601": " scratching",
  "6602": " scolds",
  "6603": " sculpture",
  "6604": " scoop",
  "6605": " scampered",
  "6606": " satisfied",
  "6607": " sails",
  "6608": " safety",
  "6609": " sadder",
  "6610": " sank",
  "6611": " sale",
  "6612": " siren",
  "6613": " sings",
  "6614": " sides",
  "6615": " sidelines",
  "6616": " siblings",
  "6617": " rustling",
  "6618": " rubble",
  "6619": " rubbing",
  "6620": " rubb",
  "6621": " rocky",
  "6622": " ripped",
  "6623": " rested",
  "6624": " responsible",
  "6625": " responsibility",
  "6626": " respond",
  "6627": " result",
  "6628": " requested",
  "6629": " remembers",
  "6630": " released",
  "6631": " refres",
  "6632": " recommendation",
  "6633": " recognizing",
  "6634": " recorder",
  "6635": " realizes",
  "6636": " realize",
  "6637": " reward",
  "6638": " reun",
  "6639": " rains",
  "6640": " raccoons",
  "6641": " raccoon",
  "6642": " rowed",
  "6643": " risks",
  "6644": " rising",
  "6645": " rinse",
  "6646": " rap",
  "6647": " quacking",
  "6648": " quacked",
  "6649": " puzzled",
  "6650": " purr",
  "6651": " puff",
  "6652": " preschool",
  "6653": " practicing",
  "6654": " praise",
  "6655": " potatoes",
  "6656": " possible",
  "6657": " possession",
  "6658": " politely",
  "6659": " pockets",
  "6660": " pleas",
  "6661": " playdate",
  "6662": " planets",
  "6663": " planned",
  "6664": " plug",
  "6665": " plain",
  "6666": " performers",
  "6667": " peeking",
  "6668": " pedalling",
  "6669": " pebbles",
  "6670": " peas",
  "6671": " patiently",
  "6672": " parts",
  "6673": " parked",
  "6674": " pants",
  "6675": " pancakes",
  "6676": " pans",
  "6677": " paints",
  "6678": " paddle",
  "6679": " pouncing",
  "6680": " poop",
  "6681": " pom",
  "6682": " pitch",
  "6683": " oysters",
  "6684": " overjoyed",
  "6685": " overhead",
  "6686": " overcome",
  "6687": " outfit",
  "6688": " organizing",
  "6689": " opening",
  "6690": " onwards",
  "6691": " olive",
  "6692": " oblige",
  "6693": " newfound",
  "6694": " neighbourhood",
  "6695": " neighborhood",
  "6696": " nearly",
  "6697": " neither",
  "6698": " mushy",
  "6699": " monsters",
  "6700": " momma",
  "6701": " moats",
  "6702": " mission",
  "6703": " milder",
  "6704": " melted",
  "6705": " meowed",
  "6706": " members",
  "6707": " matched",
  "6708": " masterpiece",
  "6709": " massages",
  "6710": " marks",
  "6711": " munching",
  "6712": " mug",
  "6713": " locket",
  "6714": " local",
  "6715": " lighter",
  "6716": " lettuce",
  "6717": " lemonade",
  "6718": " learns",
  "6719": " leading",
  "6720": " leap",
  "6721": " lavender",
  "6722": " lend",
  "6723": " langu",
  "6724": " knights",
  "6725": " kneeled",
  "6726": " kites",
  "6727": " kindly",
  "6728": " kicks",
  "6729": " keeper",
  "6730": " kings",
  "6731": " kill",
  "6732": " jacket",
  "6733": " ironed",
  "6734": " invitations",
  "6735": " interested",
  "6736": " insist",
  "6737": " indeed",
  "6738": " increased",
  "6739": " include",
  "6740": " inspired",
  "6741": " imagin",
  "6742": " ignorance",
  "6743": " hurried",
  "6744": " hunters",
  "6745": " hopeful",
  "6746": " honk",
  "6747": " holidays",
  "6748": " hisses",
  "6749": " hesitation",
  "6750": " helpers",
  "6751": " hate",
  "6752": " handsome",
  "6753": " handled",
  "6754": " guest",
  "6755": " groups",
  "6756": " grounds",
  "6757": " grassy",
  "6758": " gotten",
  "6759": " goodnight",
  "6760": " glowed",
  "6761": " glued",
  "6762": " glistened",
  "6763": " giggling",
  "6764": " given",
  "6765": " ghosts",
  "6766": " generosity",
  "6767": " glee",
  "6768": " gazed",
  "6769": " gaze",
  "6770": " frowns",
  "6771": " forgetting",
  "6772": " forgets",
  "6773": " forgiving",
  "6774": " fooled",
  "6775": " fluttered",
  "6776": " floors",
  "6777": " flour",
  "6778": " flips",
  "6779": " flip",
  "6780": " flight",
  "6781": " flavors",
  "6782": " flashing",
  "6783": " flapping",
  "6784": " flames",
  "6785": " fishermen",
  "6786": " fires",
  "6787": " fireman",
  "6788": " fetches",
  "6789": " fever",
  "6790": " fascinated",
  "6791": " farther",
  "6792": " fans",
  "6793": " families",
  "6794": " fault",
  "6795": " fact",
  "6796": " future",
  "6797": " further",
  "6798": " focused",
  "6799": " firmly",
  "6800": " file",
  "6801": " fer",
  "6802": " fantastic",
  "6803": " explorer",
  "6804": " explo",
  "6805": " exercising",
  "6806": " exhausted",
  "6807": " exactly",
  "6808": " enthusiastically",
  "6809": " enjoyment",
  "6810": " engines",
  "6811": " ends",
  "6812": " encouraging",
  "6813": " encouraged",
  "6814": " encount",
  "6815": " enemies",
  "6816": " embarrass",
  "6817": " edges",
  "6818": " eight",
  "6819": " drums",
  "6820": " drummer",
  "6821": " drinks",
  "6822": " drives",
  "6823": " dreamt",
  "6824": " dragged",
  "6825": " downstairs",
  "6826": " doctors",
  "6827": " dodged",
  "6828": " dock",
  "6829": " dishonest",
  "6830": " discoveries",
  "6831": " differently",
  "6832": " difference",
  "6833": " diving",
  "6834": " dived",
  "6835": " destroying",
  "6836": " desp",
  "6837": " designing",
  "6838": " deserve",
  "6839": " delayed",
  "6840": " decoration",
  "6841": " decides",
  "6842": " devastated",
  "6843": " dancer",
  "6844": " dips",
  "6845": " died",
  "6846": " detail",
  "6847": " darling",
  "6848": " curiously",
  "6849": " curly",
  "6850": " crowd",
  "6851": " crocodiles",
  "6852": " creativity",
  "6853": " creamy",
  "6854": " crops",
  "6855": " covers",
  "6856": " court",
  "6857": " coughed",
  "6858": " copy",
  "6859": " copied",
  "6860": " cooed",
  "6861": " container",
  "6862": " contest",
  "6863": " completely",
  "6864": " completed",
  "6865": " compromise",
  "6866": " comforting",
  "6867": " comfy",
  "6868": " collection",
  "6869": " clubhouse",
  "6870": " clues",
  "6871": " circled",
  "6872": " chirped",
  "6873": " cheering",
  "6874": " cheek",
  "6875": " challenging",
  "6876": " challenges",
  "6877": " challenge",
  "6878": " chuckled",
  "6879": " chores",
  "6880": " chilly",
  "6881": " chat",
  "6882": " chamber",
  "6883": " cartoon",
  "6884": " cape",
  "6885": " campfire",
  "6886": " cautiously",
  "6887": " cousin",
  "6888": " cott",
  "6889": " correct",
  "6890": " coop",
  "6891": " congratulated",
  "6892": " cinnamon",
  "6893": " cent",
  "6894": " burying",
  "6895": " bumping",
  "6896": " bulbs",
  "6897": " builders",
  "6898": " buckles",
  "6899": " buckle",
  "6900": " brightened",
  "6901": " bricks",
  "6902": " breathing",
  "6903": " brand",
  "6904": " brakes",
  "6905": " bowed",
  "6906": " bottles",
  "6907": " blows",
  "6908": " blushed",
  "6909": " blush",
  "6910": " belt",
  "6911": " below",
  "6912": " behaved",
  "6913": " beginning",
  "6914": " beeped",
  "6915": " becoming",
  "6916": " beans",
  "6917": " bathrobes",
  "6918": " bars",
  "6919": " balancing",
  "6920": " backwards",
  "6921": " backs",
  "6922": " baseball",
  "6923": " born",
  "6924": " boo",
  "6925": " bank",
  "6926": " avocados",
  "6927": " avoid",
  "6928": " auntie",
  "6929": " attendant",
  "6930": " attem",
  "6931": " attack",
  "6932": " argued",
  "6933": " arguing",
  "6934": " appreciation",
  "6935": " approached",
  "6936": " apron",
  "6937": " annoy",
  "6938": " amused",
  "6939": " agreement",
  "6940": " afar",
  "6941": " admiring",
  "6942": " Zoe",
  "6943": " Wait",
  "6944": " Wacky",
  "6945": " Time",
  "6946": " These",
  "6947": " Tony",
  "6948": " Take",
  "6949": " Startled",
  "6950": " Sock",
  "6951": " Smoke",
  "6952": " Small",
  "6953": " Slowly",
  "6954": " Shrimp",
  "6955": " Squeaky",
  "6956": " Sleep",
  "6957": " Six",
  "6958": " Since",
  "6959": " Saturday",
  "6960": " Sadly",
  "6961": " Robe",
  "6962": " Rocky",
  "6963": " Pretend",
  "6964": " Planes",
  "6965": " Pigeon",
  "6966": " Out",
  "6967": " Off",
  "6968": " None",
  "6969": " Matty",
  "6970": " Mouse",
  "6971": " Mandy",
  "6972": " Lizard",
  "6973": " Levi",
  "6974": " Louis",
  "6975": " Kids",
  "6976": " Jethro",
  "6977": " Isn",
  "6978": " Ice",
  "6979": " However",
  "6980": " Helping",
  "6981": " Giant",
  "6982": " Froggy",
  "6983": " Forg",
  "6984": " Fiona",
  "6985": " Enjoy",
  "6986": " Each",
  "6987": " Club",
  "6988": " Clock",
  "6989": " Being",
  "6990": " Behind",
  "6991": " Before",
  "6992": " By",
  "6993": " Books",
  "6994": " Birthday",
  "6995": " Banana",
  "6996": " Bally",
  "6997": " Always",
  "6998": " ouch",
  "6999": " icing",
  "7000": " Once",
  "7001": "”,",
  "7002": "’.",
  "7003": "zip",
  "7004": "zing",
  "7005": "yalty",
  "7006": "ype",
  "7007": "xoph",
  "7008": "xophone",
  "7009": "xes",
  "7010": "whel",
  "7011": "whelmed",
  "7012": "wheels",
  "7013": "while",
  "7014": "what",
  "7015": "weed",
  "7016": "wo",
  "7017": "wim",
  "7018": "wimming",
  "7019": "watch",
  "7020": "versing",
  "7021": "vering",
  "7022": "verber",
  "7023": "verberating",
  "7024": "verance",
  "7025": "vention",
  "7026": "ventions",
  "7027": "venir",
  "7028": "venirs",
  "7029": "vest",
  "7030": "vation",
  "7031": "vant",
  "7032": "vantage",
  "7033": "uzzles",
  "7034": "using",
  "7035": "urtle",
  "7036": "urrying",
  "7037": "urprisingly",
  "7038": "urple",
  "7039": "urns",
  "7040": "urnam",
  "7041": "urnament",
  "7042": "urnaments",
  "7043": "urchase",
  "7044": "urning",
  "7045": "urls",
  "7046": "urled",
  "7047": "urky",
  "7048": "undred",
  "7049": "undreds",
  "7050": "unked",
  "7051": "unity",
  "7052": "unities",
  "7053": "unches",
  "7054": "uming",
  "7055": "ument",
  "7056": "ulture",
  "7057": "ultures",
  "7058": "ulp",
  "7059": "ulf",
  "7060": "ugs",
  "7061": "uffiest",
  "7062": "uddled",
  "7063": "uddered",
  "7064": "ucumber",
  "7065": "uzzy",
  "7066": "use",
  "7067": "usement",
  "7068": "uriosity",
  "7069": "uries",
  "7070": "uises",
  "7071": "uess",
  "7072": "udy",
  "7073": "udying",
  "7074": "udge",
  "7075": "ud",
  "7076": "toes",
  "7077": "ths",
  "7078": "throw",
  "7079": "throwing",
  "7080": "through",
  "7081": "though",
  "7082": "this",
  "7083": "ters",
  "7084": "terru",
  "7085": "terrupt",
  "7086": "turn",
  "7087": "tree",
  "7088": "tiv",
  "7089": "tivated",
  "7090": "tally",
  "7091": "table",
  "7092": "strike",
  "7093": "strich",
  "7094": "strong",
  "7095": "stron",
  "7096": "strona",
  "7097": "stronauts",
  "7098": "steady",
  "7099": "standing",
  "7100": "stret",
  "7101": "stretched",
  "7102": "stantly",
  "7103": "stac",
  "7104": "stacles",
  "7105": "ssible",
  "7106": "sses",
  "7107": "squawk",
  "7108": "specially",
  "7109": "sol",
  "7110": "solve",
  "7111": "smell",
  "7112": "smelling",
  "7113": "smart",
  "7114": "sitive",
  "7115": "shm",
  "7116": "shmall",
  "7117": "shmallows",
  "7118": "sery",
  "7119": "servation",
  "7120": "severance",
  "7121": "sequ",
  "7122": "sequences",
  "7123": "semb",
  "7124": "sembled",
  "7125": "screen",
  "7126": "sued",
  "7127": "sid",
  "7128": "sider",
  "7129": "sher",
  "7130": "she",
  "7131": "send",
  "7132": "saw",
  "7133": "saws",
  "7134": "saur",
  "7135": "rossed",
  "7136": "roma",
  "7137": "robe",
  "7138": "rozen",
  "7139": "rolled",
  "7140": "rol",
  "7141": "roken",
  "7142": "rills",
  "7143": "rip",
  "7144": "rike",
  "7145": "riek",
  "7146": "rible",
  "7147": "ribbit",
  "7148": "riately",
  "7149": "riangle",
  "7150": "reworks",
  "7151": "retty",
  "7152": "renching",
  "7153": "reliable",
  "7154": "reedy",
  "7155": "reams",
  "7156": "rent",
  "7157": "reec",
  "7158": "reeched",
  "7159": "raying",
  "7160": "rating",
  "7161": "ragon",
  "7162": "rap",
  "7163": "rapher",
  "7164": "rack",
  "7165": "rus",
  "7166": "rumpy",
  "7167": "ruit",
  "7168": "rop",
  "7169": "ropriately",
  "7170": "roof",
  "7171": "ris",
  "7172": "rin",
  "7173": "rints",
  "7174": "rily",
  "7175": "rigg",
  "7176": "riggle",
  "7177": "rig",
  "7178": "rigued",
  "7179": "ranged",
  "7180": "ram",
  "7181": "rambled",
  "7182": "quet",
  "7183": "quered",
  "7184": "pts",
  "7185": "pting",
  "7186": "pport",
  "7187": "pportunities",
  "7188": "ppear",
  "7189": "plish",
  "7190": "plishment",
  "7191": "planes",
  "7192": "piders",
  "7193": "pective",
  "7194": "peedy",
  "7195": "prints",
  "7196": "please",
  "7197": "pitched",
  "7198": "pan",
  "7199": "oys",
  "7200": "owing",
  "7201": "outs",
  "7202": "ousers",
  "7203": "oured",
  "7204": "ounds",
  "7205": "ounced",
  "7206": "ouvenirs",
  "7207": "ouraged",
  "7208": "ouquet",
  "7209": "ouched",
  "7210": "ouble",
  "7211": "ostume",
  "7212": "oses",
  "7213": "orses",
  "7214": "ordination",
  "7215": "ordinary",
  "7216": "orant",
  "7217": "ophies",
  "7218": "oped",
  "7219": "oopy",
  "7220": "ooping",
  "7221": "ooded",
  "7222": "oogly",
  "7223": "onna",
  "7224": "ongratulations",
  "7225": "onge",
  "7226": "omets",
  "7227": "omelet",
  "7228": "omelette",
  "7229": "omplishment",
  "7230": "olled",
  "7231": "oloured",
  "7232": "ographer",
  "7233": "ocious",
  "7234": "obo",
  "7235": "obody",
  "7236": "ossible",
  "7237": "oor",
  "7238": "okes",
  "7239": "oken",
  "7240": "ok",
  "7241": "od",
  "7242": "odies",
  "7243": "oar",
  "7244": "nytime",
  "7245": "nting",
  "7246": "ndpare",
  "7247": "ndparents",
  "7248": "nderstanding",
  "7249": "nds",
  "7250": "ndition",
  "7251": "nother",
  "7252": "no",
  "7253": "nives",
  "7254": "nia",
  "7255": "nect",
  "7256": "nection",
  "7257": "nc",
  "7258": "nas",
  "7259": "myard",
  "7260": "meow",
  "7261": "munity",
  "7262": "mpting",
  "7263": "mmediately",
  "7264": "mates",
  "7265": "mate",
  "7266": "match",
  "7267": "made",
  "7268": "machines",
  "7269": "machine",
  "7270": "lyly",
  "7271": "llas",
  "7272": "lessing",
  "7273": "leness",
  "7274": "ledge",
  "7275": "lection",
  "7276": "leas",
  "7277": "lutter",
  "7278": "lume",
  "7279": "lost",
  "7280": "lied",
  "7281": "lared",
  "7282": "kends",
  "7283": "just",
  "7284": "juries",
  "7285": "jected",
  "7286": "izzled",
  "7287": "izzas",
  "7288": "ivation",
  "7289": "ithers",
  "7290": "itness",
  "7291": "itious",
  "7292": "itam",
  "7293": "itamins",
  "7294": "istory",
  "7295": "isky",
  "7296": "isappear",
  "7297": "isplay",
  "7298": "isle",
  "7299": "isies",
  "7300": "isher",
  "7301": "isherman",
  "7302": "ironment",
  "7303": "irits",
  "7304": "irer",
  "7305": "irk",
  "7306": "iped",
  "7307": "ipation",
  "7308": "interest",
  "7309": "interesting",
  "7310": "indness",
  "7311": "innia",
  "7312": "inet",
  "7313": "illier",
  "7314": "ille",
  "7315": "illeg",
  "7316": "illegal",
  "7317": "iles",
  "7318": "ilient",
  "7319": "ilence",
  "7320": "ignorant",
  "7321": "ightly",
  "7322": "ighting",
  "7323": "ighters",
  "7324": "iggled",
  "7325": "igs",
  "7326": "igion",
  "7327": "ighing",
  "7328": "ificent",
  "7329": "ieves",
  "7330": "idents",
  "7331": "idently",
  "7332": "idly",
  "7333": "iding",
  "7334": "ict",
  "7335": "icipation",
  "7336": "iciest",
  "7337": "ibilities",
  "7338": "ibly",
  "7339": "ireworks",
  "7340": "iour",
  "7341": "iking",
  "7342": "iences",
  "7343": "ibble",
  "7344": "iar",
  "7345": "heese",
  "7346": "hee",
  "7347": "haft",
  "7348": "hot",
  "7349": "hi",
  "7350": "harm",
  "7351": "harmed",
  "7352": "getic",
  "7353": "gic",
  "7354": "gh",
  "7355": "formed",
  "7356": "flict",
  "7357": "ffect",
  "7358": "feat",
  "7359": "factory",
  "7360": "factor",
  "7361": "factories",
  "7362": "faction",
  "7363": "faced",
  "7364": "fun",
  "7365": "fs",
  "7366": "fruit",
  "7367": "friend",
  "7368": "free",
  "7369": "flow",
  "7370": "fless",
  "7371": "fine",
  "7372": "find",
  "7373": "fighters",
  "7374": "fidently",
  "7375": "fer",
  "7376": "fed",
  "7377": "father",
  "7378": "excuse",
  "7379": "eted",
  "7380": "etch",
  "7381": "etchup",
  "7382": "esy",
  "7383": "esome",
  "7384": "eshaft",
  "7385": "ervice",
  "7386": "errified",
  "7387": "erving",
  "7388": "error",
  "7389": "erked",
  "7390": "eries",
  "7391": "ergic",
  "7392": "erfully",
  "7393": "erced",
  "7394": "erature",
  "7395": "erately",
  "7396": "erate",
  "7397": "epy",
  "7398": "eped",
  "7399": "epeat",
  "7400": "entured",
  "7401": "entive",
  "7402": "enting",
  "7403": "eneath",
  "7404": "enderly",
  "7405": "ended",
  "7406": "ennas",
  "7407": "elieve",
  "7408": "eled",
  "7409": "edicted",
  "7410": "edication",
  "7411": "ectangle",
  "7412": "ectac",
  "7413": "ectacular",
  "7414": "ecked",
  "7415": "epper",
  "7416": "ekends",
  "7417": "eese",
  "7418": "ean",
  "7419": "eanwhile",
  "7420": "ddles",
  "7421": "drobe",
  "7422": "dling",
  "7423": "cuing",
  "7424": "ctually",
  "7425": "coming",
  "7426": "ckly",
  "7427": "ckled",
  "7428": "child",
  "7429": "cerned",
  "7430": "ceeded",
  "7431": "ccidents",
  "7432": "cut",
  "7433": "curls",
  "7434": "cters",
  "7435": "cream",
  "7436": "couraged",
  "7437": "coloured",
  "7438": "cles",
  "7439": "cher",
  "7440": "cert",
  "7441": "cause",
  "7442": "cakes",
  "7443": "byes",
  "7444": "building",
  "7445": "brown",
  "7446": "brations",
  "7447": "boys",
  "7448": "boxes",
  "7449": "beep",
  "7450": "beara",
  "7451": "bearable",
  "7452": "bump",
  "7453": "bs",
  "7454": "broken",
  "7455": "bly",
  "7456": "bit",
  "7457": "believe",
  "7458": "because",
  "7459": "aviour",
  "7460": "aunting",
  "7461": "atteries",
  "7462": "attered",
  "7463": "atey",
  "7464": "atted",
  "7465": "ative",
  "7466": "atitude",
  "7467": "atform",
  "7468": "astly",
  "7469": "astles",
  "7470": "ashier",
  "7471": "asing",
  "7472": "ases",
  "7473": "arlings",
  "7474": "arkable",
  "7475": "arest",
  "7476": "arefully",
  "7477": "ardless",
  "7478": "aracters",
  "7479": "arty",
  "7480": "ars",
  "7481": "arled",
  "7482": "arked",
  "7483": "arinet",
  "7484": "aptable",
  "7485": "apers",
  "7486": "ansformed",
  "7487": "anges",
  "7488": "anted",
  "7489": "anner",
  "7490": "aned",
  "7491": "anced",
  "7492": "amped",
  "7493": "amboo",
  "7494": "amage",
  "7495": "alyzed",
  "7496": "alls",
  "7497": "alloped",
  "7498": "aled",
  "7499": "aken",
  "7500": "ains",
  "7501": "ails",
  "7502": "ailors",
  "7503": "aging",
  "7504": "ady",
  "7505": "adually",
  "7506": "ads",
  "7507": "ada",
  "7508": "away",
  "7509": "aven",
  "7510": "autiously",
  "7511": "aisies",
  "7512": "ably",
  "7513": "Zip",
  "7514": "Zigzag",
  "7515": "Ziggy",
  "7516": "Zara",
  "7517": "Yummy",
  "7518": "Yet",
  "7519": "Which",
  "7520": "Wee",
  "7521": "Wild",
  "7522": "Whew",
  "7523": "Whee",
  "7524": "Want",
  "7525": "Wake",
  "7526": "Waffle",
  "7527": "Vroom",
  "7528": "Very",
  "7529": "Use",
  "7530": "Up",
  "7531": "Understanding",
  "7532": "Ugh",
  "7533": "Trust",
  "7534": "Trade",
  "7535": "Thanks",
  "7536": "Thankfully",
  "7537": "Throw",
  "7538": "Three",
  "7539": "Try",
  "7540": "Tree",
  "7541": "Tea",
  "7542": "TH",
  "7543": "THE",
  "7544": "Surprised",
  "7545": "Steve",
  "7546": "Steel",
  "7547": "Studying",
  "7548": "Strike",
  "7549": "Strawberries",
  "7550": "Still",
  "7551": "Star",
  "7552": "Stand",
  "7553": "Spirits",
  "7554": "Spicy",
  "7555": "Shrimp",
  "7556": "Shouts",
  "7557": "Should",
  "7558": "Shoo",
  "7559": "Shadow",
  "7560": "Seeing",
  "7561": "Swimming",
  "7562": "Sun",
  "7563": "Speedy",
  "7564": "Soup",
  "7565": "Six",
  "7566": "Rufus",
  "7567": "Rude",
  "7568": "Ruby",
  "7569": "Record",
  "7570": "Recommend",
  "7571": "Rosie",
  "7572": "Roof",
  "7573": "Ronnie",
  "7574": "Rob",
  "7575": "Roar",
  "7576": "Rex",
  "7577": "Rain",
  "7578": "Rachel",
  "7579": "Quick",
  "7580": "Purple",
  "7581": "Pretty",
  "7582": "Pretend",
  "7583": "Pilot",
  "7584": "Pete",
  "7585": "Pepper",
  "7586": "Pass",
  "7587": "Pandy",
  "7588": "Only",
  "7589": "Over",
  "7590": "Out",
  "7591": "Nod",
  "7592": "Nearby",
  "7593": "Naughty",
  "7594": "NG",
  "7595": "Miaow",
  "7596": "Meal",
  "7597": "March",
  "7598": "Move",
  "7599": "Mother",
  "7600": "Monica",
  "7601": "Moby",
  "7602": "Mo",
  "7603": "Manny",
  "7604": "Levi",
  "7605": "Leave",
  "7606": "Lydia",
  "7607": "Lizzy",
  "7608": "Listen",
  "7609": "Like",
  "7610": "Life",
  "7611": "Laura",
  "7612": "King",
  "7613": "Kim",
  "7614": "Keep",
  "7615": "Josh",
  "7616": "Joey",
  "7617": "June",
  "7618": "Jessie",
  "7619": "Jerry",
  "7620": "Jakes",
  "7621": "Isn",
  "7622": "However",
  "7623": "Hippy",
  "7624": "Hope",
  "7625": "Hop",
  "7626": "Honey",
  "7627": "Harry",
  "7628": "Goodnight",
  "7629": "Guess",
  "7630": "Grow",
  "7631": "Gerry",
  "7632": "Frustrated",
  "7633": "Frog",
  "7634": "Full",
  "7635": "Follow",
  "7636": "Flossy",
  "7637": "Fisherman",
  "7638": "Fish",
  "7639": "Fifi",
  "7640": "Feed",
  "7641": "Far",
  "7642": "Emily",
  "7643": "Eek",
  "7644": "Dangerous",
  "7645": "Dreams",
  "7646": "Dot",
  "7647": "Dog",
  "7648": "Display",
  "7649": "Disappear",
  "7650": "Determined",
  "7651": "Deal",
  "7652": "Dead",
  "7653": "Cheers",
  "7654": "Cheerfully",
  "7655": "Choose",
  "7656": "Crazy",
  "7657": "Crack",
  "7658": "Cows",
  "7659": "Costume",
  "7660": "Congratulations",
  "7661": "Clock",
  "7662": "Cautiously",
  "7663": "Catch",
  "7664": "Carl",
  "7665": "Car",
  "7666": "Buzzy",
  "7667": "Buzz",
  "7668": "Both",
  "7669": "Boom",
  "7670": "Boo",
  "7671": "Bibi",
  "7672": "Bear",
  "7673": "Ball",
  "7674": "Baby",
  "7675": "BA",
  "7676": "BANG",
  "7677": "Aww",
  "7678": "Ahoy",
  "7679": "Aunt",
  "7680": "Apples",
  "7681": "Amanda",
  "7682": "Ally",
  "7683": "Alex",
  "7684": "Adam",
  "7685": "Actually",
  "7686": "?'",
  "7687": "?!”.",
  "7688": ":\"",
  "7689": "10",
  "7690": "...\"",
  "7691": "',\"",
  "7692": "!”,",
  "7693": "!''",
  "7694": "!\",",
  "7695": "!?\",",
  "7696": "!,”",
  "7697": " ‘",
  "7698": " zigzags",
  "7699": " zone",
  "7700": " zinnia",
  "7701": " yielded",
  "7702": " yelps",
  "7703": " yelped",
  "7704": " yells",
  "7705": " writer",
  "7706": " wrappers",
  "7707": " written",
  "7708": " wrist",
  "7709": " wrinkled",
  "7710": " wounds",
  "7711": " workers",
  "7712": " wooden",
  "7713": " wondering",
  "7714": " wobbly",
  "7715": " wobbled",
  "7716": " winked",
  "7717": " wiggle",
  "7718": " widening",
  "7719": " whoever",
  "7720": " whether",
  "7721": " whiz",
  "7722": " whipped",
  "7723": " whine",
  "7724": " weren",
  "7725": " weighs",
  "7726": " weaker",
  "7727": " wept",
  "7728": " weighing",
  "7729": " weighed",
  "7730": " weekends",
  "7731": " webs",
  "7732": " watering",
  "7733": " wasted",
  "7734": " washer",
  "7735": " warmth",
  "7736": " warmly",
  "7737": " wardrobe",
  "7738": " walrus",
  "7739": " wanna",
  "7740": " wailed",
  "7741": " waddles",
  "7742": " wrench",
  "7743": " wow",
  "7744": " witness",
  "7745": " withers",
  "7746": " withered",
  "7747": " volume",
  "7748": " visits",
  "7749": " visitors",
  "7750": " vibrations",
  "7751": " valuing",
  "7752": " valleys",
  "7753": " valued",
  "7754": " vitamins",
  "7755": " ventured",
  "7756": " vases",
  "7757": " vain",
  "7758": " useless",
  "7759": " unwrapping",
  "7760": " unwrap",
  "7761": " untied",
  "7762": " untangles",
  "7763": " unpacking",
  "7764": " unlike",
  "7765": " uniforms",
  "7766": " unfolded",
  "7767": " unfurled",
  "7768": " unfair",
  "7769": " unzip",
  "7770": " unsteady",
  "7771": " unrolled",
  "7772": " unharmed",
  "7773": " uncurls",
  "7774": " unbearable",
  "7775": " unable",
  "7776": " umbrellas",
  "7777": " twists",
  "7778": " twirls",
  "7779": " twirl",
  "7780": " twitched",
  "7781": " twinkled",
  "7782": " twigs",
  "7783": " tutors",
  "7784": " turkeys",
  "7785": " trusts",
  "7786": " trumpeter",
  "7787": " trudged",
  "7788": " treated",
  "7789": " travels",
  "7790": " trading",
  "7791": " traded",
  "7792": " trousers",
  "7793": " trophies",
  "7794": " transformed",
  "7795": " towered",
  "7796": " towels",
  "7797": " touches",
  "7798": " tongues",
  "7799": " tomatoes",
  "7800": " toasts",
  "7801": " tournaments",
  "7802": " totally",
  "7803": " tosses",
  "7804": " tossed",
  "7805": " tires",
  "7806": " tieing",
  "7807": " tidied",
  "7808": " thorns",
  "7809": " thinner",
  "7810": " thankfulness",
  "7811": " thus",
  "7812": " thugs",
  "7813": " thrill",
  "7814": " threat",
  "7815": " third",
  "7816": " thieves",
  "7817": " tempted",
  "7818": " temperature",
  "7819": " teapot",
  "7820": " tempting",
  "7821": " tasting",
  "7822": " taps",
  "7823": " tambourines",
  "7824": " tambourine",
  "7825": " tallest",
  "7826": " tails",
  "7827": " tables",
  "7828": " tapped",
  "7829": " tackled",
  "7830": " type",
  "7831": " tying",
  "7832": " tumble",
  "7833": " tippy",
  "7834": " tipping",
  "7835": " tinkling",
  "7836": " terror",
  "7837": " tenderly",
  "7838": " tame",
  "7839": " sync",
  "7840": " swimsuit",
  "7841": " swimmer",
  "7842": " sweetest",
  "7843": " sweeter",
  "7844": " swans",
  "7845": " swishing",
  "7846": " swipes",
  "7847": " swiped",
  "7848": " swapping",
  "7849": " surroundings",
  "7850": " surrounding",
  "7851": " surrendering",
  "7852": " surrendered",
  "7853": " surprisingly",
  "7854": " surfaced",
  "7855": " supported",
  "7856": " supplies",
  "7857": " supplied",
  "7858": " sunscreen",
  "7859": " suitable",
  "7860": " suggests",
  "7861": " succeeded",
  "7862": " styles",
  "7863": " stuffed",
  "7864": " strips",
  "7865": " strict",
  "7866": " streamers",
  "7867": " strum",
  "7868": " strolled",
  "7869": " strokes",
  "7870": " stroke",
  "7871": " stormy",
  "7872": " stomachs",
  "7873": " stomp",
  "7874": " sternly",
  "7875": " steady",
  "7876": " staying",
  "7877": " startled",
  "7878": " stitched",
  "7879": " stink",
  "7880": " stings",
  "7881": " stench",
  "7882": " stash",
  "7883": " stamped",
  "7884": " stains",
  "7885": " squeezy",
  "7886": " squeezing",
  "7887": " squeal",
  "7888": " squeaking",
  "7889": " squawking",
  "7890": " squawked",
  "7891": " squashed",
  "7892": " squished",
  "7893": " squinted",
  "7894": " squatted",
  "7895": " sprinkled",
  "7896": " sprinkle",
  "7897": " sprays",
  "7898": " spoonful",
  "7899": " spoil",
  "7900": " splashes",
  "7901": " splitting",
  "7902": " spits",
  "7903": " spilling",
  "7904": " speeding",
  "7905": " spewed",
  "7906": " sparks",
  "7907": " sparkles",
  "7908": " sponge",
  "7909": " spins",
  "7910": " sped",
  "7911": " spectacular",
  "7912": " spattered",
  "7913": " sparked",
  "7914": " source",
  "7915": " soundly",
  "7916": " solution",
  "7917": " solo",
  "7918": " softened",
  "7919": " soaps",
  "7920": " socks",
  "7921": " sobbing",
  "7922": " soaked",
  "7923": " snuggly",
  "7924": " snugly",
  "7925": " snowmen",
  "7926": " snowball",
  "7927": " sneakers",
  "7928": " snaps",
  "7929": " snorted",
  "7930": " snort",
  "7931": " snooping",
  "7932": " snarled",
  "7933": " smiley",
  "7934": " smallest",
  "7935": " smirk",
  "7936": " smelt",
  "7937": " sleds",
  "7938": " sledded",
  "7939": " sludge",
  "7940": " slopes",
  "7941": " slithered",
  "7942": " slipping",
  "7943": " slightly",
  "7944": " skirts",
  "7945": " skinny",
  "7946": " sirens",
  "7947": " sincere",
  "7948": " silently",
  "7949": " sights",
  "7950": " sighs",
  "7951": " shrinks",
  "7952": " shrunk",
  "7953": " shovels",
  "7954": " shoulders",
  "7955": " shopped",
  "7956": " shivered",
  "7957": " shielding",
  "7958": " shed",
  "7959": " shares",
  "7960": " shuddered",
  "7961": " shriek",
  "7962": " shown",
  "7963": " shooed",
  "7964": " shave",
  "7965": " shall",
  "7966": " shaky",
  "7967": " shaken",
  "7968": " sets",
  "7969": " servers",
  "7970": " separating",
  "7971": " separated",
  "7972": " sends",
  "7973": " selfless",
  "7974": " seeker",
  "7975": " secretly",
  "7976": " secretive",
  "7977": " secure",
  "7978": " seaweed",
  "7979": " sew",
  "7980": " season",
  "7981": " scrubbed",
  "7982": " scribbles",
  "7983": " scribbling",
  "7984": " screens",
  "7985": " scoops",
  "7986": " scares",
  "7987": " scarves",
  "7988": " scurrying",
  "7989": " screeched",
  "7990": " scrambled",
  "7991": " scores",
  "7992": " scored",
  "7993": " score",
  "7994": " science",
  "7995": " scene",
  "7996": " scans",
  "7997": " scanner",
  "7998": " scaly",
  "7999": " saucepan",
  "8000": " satisfaction",
  "8001": " sandcastles",
  "8002": " salads",
  "8003": " sacks",
  "8004": " saxophone",
  "8005": " sowing",
  "8006": " souvenirs",
  "8007": " slyly",
  "8008": " sizzled",
  "8009": " sillier",
  "8010": " silk",
  "8011": " service",
  "8012": " rusty",
  "8013": " rustled",
  "8014": " runner",
  "8015": " rubbish",
  "8016": " rubber",
  "8017": " ruin",
  "8018": " rounded",
  "8019": " roller",
  "8020": " rods",
  "8021": " rockets",
  "8022": " roads",
  "8023": " royalty",
  "8024": " roses",
  "8025": " rips",
  "8026": " rider",
  "8027": " ribbons",
  "8028": " ripples",
  "8029": " ripe",
  "8030": " riches",
  "8031": " revealed",
  "8032": " reuniting",
  "8033": " reunited",
  "8034": " returning",
  "8035": " restored",
  "8036": " response",
  "8037": " resists",
  "8038": " resisting",
  "8039": " rescued",
  "8040": " resisted",
  "8041": " resilient",
  "8042": " rescuing",
  "8043": " replyed",
  "8044": " replies",
  "8045": " repeating",
  "8046": " reminds",
  "8047": " remembering",
  "8048": " remains",
  "8049": " remarkable",
  "8050": " releasing",
  "8051": " religion",
  "8052": " reindeers",
  "8053": " regardless",
  "8054": " refreshing",
  "8055": " refreshed",
  "8056": " reflection",
  "8057": " recommending",
  "8058": " recipe",
  "8059": " realizing",
  "8060": " realising",
  "8061": " reads",
  "8062": " reversing",
  "8063": " reverberating",
  "8064": " resolve",
  "8065": " rely",
  "8066": " rejected",
  "8067": " reeled",
  "8068": " reeds",
  "8069": " rebuild",
  "8070": " reason",
  "8071": " rapids",
  "8072": " rapidly",
  "8073": " railway",
  "8074": " radishes",
  "8075": " races",
  "8076": " risky",
  "8077": " rises",
  "8078": " rather",
  "8079": " raking",
  "8080": " rake",
  "8081": " quietly",
  "8082": " quieter",
  "8083": " questioned",
  "8084": " queens",
  "8085": " quarreled",
  "8086": " quacks",
  "8087": " quench",
  "8088": " purrs",
  "8089": " purposes",
  "8090": " purring",
  "8091": " purred",
  "8092": " puppies",
  "8093": " pumped",
  "8094": " prouder",
  "8095": " protector",
  "8096": " protective",
  "8097": " protection",
  "8098": " protecting",
  "8099": " protected",
  "8100": " promises",
  "8101": " probably",
  "8102": " proven",
  "8103": " proceeded",
  "8104": " prints",
  "8105": " princesses",
  "8106": " printed",
  "8107": " prized",
  "8108": " prickly",
  "8109": " preventing",
  "8110": " prettiest",
  "8111": " presses",
  "8112": " presents",
  "8113": " presented",
  "8114": " presentation",
  "8115": " prefer",
  "8116": " props",
  "8117": " predicted",
  "8118": " pouring",
  "8119": " possibilities",
  "8120": " polar",
  "8121": " poster",
  "8122": " positive",
  "8123": " popping",
  "8124": " pleasant",
  "8125": " plead",
  "8126": " playgrounds",
  "8127": " playroom",
  "8128": " playmates",
  "8129": " planting",
  "8130": " planning",
  "8131": " plucked",
  "8132": " plot",
  "8133": " platform",
  "8134": " plank",
  "8135": " pillows",
  "8136": " pierced",
  "8137": " photographer",
  "8138": " petted",
  "8139": " perspective",
  "8140": " performing",
  "8141": " perseverance",
  "8142": " perched",
  "8143": " pedaled",
  "8144": " peddled",
  "8145": " peacefulness",
  "8146": " peeped",
  "8147": " peak",
  "8148": " pays",
  "8149": " paying",
  "8150": " pastries",
  "8151": " passing",
  "8152": " paralyzed",
  "8153": " panting",
  "8154": " painful",
  "8155": " pads",
  "8156": " paddling",
  "8157": " packing",
  "8158": " purchase",
  "8159": " pulp",
  "8160": " pounds",
  "8161": " pizzas",
  "8162": " pecked",
  "8163": " overwhelmed",
  "8164": " overflow",
  "8165": " overcoming",
  "8166": " overalls",
  "8167": " outstretched",
  "8168": " outsmart",
  "8169": " outlook",
  "8170": " outing",
  "8171": " ourselves",
  "8172": " oranges",
  "8173": " options",
  "8174": " ope",
  "8175": " offers",
  "8176": " obstacles",
  "8177": " ostrich",
  "8178": " opportunities",
  "8179": " oink",
  "8180": " nursery",
  "8181": " numbered",
  "8182": " notebooks",
  "8183": " notices",
  "8184": " noses",
  "8185": " nightstand",
  "8186": " nights",
  "8187": " newspapers",
  "8188": " newest",
  "8189": " network",
  "8190": " neighs",
  "8191": " needles",
  "8192": " necklaces",
  "8193": " nearest",
  "8194": " napkins",
  "8195": " nuzzles",
  "8196": " nibble",
  "8197": " napped",
  "8198": " nailed",
  "8199": " mustn",
  "8200": " mushrooms",
  "8201": " mummies",
  "8202": " motivation",
  "8203": " monument",
  "8204": " months",
  "8205": " mopping",
  "8206": " moaned",
  "8207": " misses",
  "8208": " mineshaft",
  "8209": " metres",
  "8210": " messes",
  "8211": " melts",
  "8212": " melodies",
  "8213": " meanness",
  "8214": " meaning",
  "8215": " meanie",
  "8216": " meals",
  "8217": " meadows",
  "8218": " meows",
  "8219": " mattresses",
  "8220": " matters",
  "8221": " matching",
  "8222": " mats",
  "8223": " massaging",
  "8224": " marshmallows",
  "8225": " magnificent",
  "8226": " murky",
  "8227": " munches",
  "8228": " mound",
  "8229": " mooed",
  "8230": " moo",
  "8231": " mitt",
  "8232": " miles",
  "8233": " matey",
  "8234": " mailed",
  "8235": " machines",
  "8236": " ma",
  "8237": " lunchboxes",
  "8238": " lowers",
  "8239": " lowered",
  "8240": " lookout",
  "8241": " longing",
  "8242": " lollipops",
  "8243": " loads",
  "8244": " losing",
  "8245": " loses",
  "8246": " lolly",
  "8247": " lodged",
  "8248": " lighting",
  "8249": " lifts",
  "8250": " lifeless",
  "8251": " licking",
  "8252": " librarian",
  "8253": " lied",
  "8254": " lessons",
  "8255": " leopards",
  "8256": " leaning",
  "8257": " leader",
  "8258": " levers",
  "8259": " lever",
  "8260": " lease",
  "8261": " leaking",
  "8262": " languages",
  "8263": " language",
  "8264": " lakes",
  "8265": " lush",
  "8266": " lumpy",
  "8267": " luckily",
  "8268": " littered",
  "8269": " linked",
  "8270": " limp",
  "8271": " lily",
  "8272": " knowingly",
  "8273": " knowledge",
  "8274": " kneeling",
  "8275": " kneels",
  "8276": " knives",
  "8277": " kittens",
  "8278": " kindest",
  "8279": " kinder",
  "8280": " killed",
  "8281": " kayaking",
  "8282": " ketchup",
  "8283": " jumper",
  "8284": " juiciest",
  "8285": " journeys",
  "8286": " jogger",
  "8287": " jobs",
  "8288": " jams",
  "8289": " jackets",
  "8290": " jumbled",
  "8291": " jug",
  "8292": " jiggled",
  "8293": " jerked",
  "8294": " itchy",
  "8295": " itches",
  "8296": " islands",
  "8297": " ironing",
  "8298": " intrigued",
  "8299": " intended",
  "8300": " insisting",
  "8301": " incredibly",
  "8302": " including",
  "8303": " inventions",
  "8304": " interrupt",
  "8305": " instantly",
  "8306": " injuries",
  "8307": " inch",
  "8308": " improved",
  "8309": " impossible",
  "8310": " imaginative",
  "8311": " imaginable",
  "8312": " imagining",
  "8313": " images",
  "8314": " ignoring",
  "8315": " ignition",
  "8316": " howled",
  "8317": " however",
  "8318": " hotter",
  "8319": " horns",
  "8320": " horror",
  "8321": " horrible",
  "8322": " honks",
  "8323": " honking",
  "8324": " honked",
  "8325": " hovering",
  "8326": " hissed",
  "8327": " hideaway",
  "8328": " hider",
  "8329": " hesitated",
  "8330": " hesitantly",
  "8331": " hesitant",
  "8332": " heroes",
  "8333": " hens",
  "8334": " helplessly",
  "8335": " hearts",
  "8336": " heartbroken",
  "8337": " healed",
  "8338": " heading",
  "8339": " hey",
  "8340": " heaven",
  "8341": " hates",
  "8342": " hatch",
  "8343": " hardly",
  "8344": " harvest",
  "8345": " harsher",
  "8346": " handmade",
  "8347": " handful",
  "8348": " hallway",
  "8349": " haircut",
  "8350": " hated",
  "8351": " halo",
  "8352": " habit",
  "8353": " hundreds",
  "8354": " huff",
  "8355": " huddled",
  "8356": " hooded",
  "8357": " hire",
  "8358": " hint",
  "8359": " hike",
  "8360": " guns",
  "8361": " guests",
  "8362": " guarding",
  "8363": " guards",
  "8364": " growling",
  "8365": " growl",
  "8366": " groceries",
  "8367": " greens",
  "8368": " grey",
  "8369": " greeted",
  "8370": " gratefully",
  "8371": " grandsons",
  "8372": " grandfather",
  "8373": " grandchild",
  "8374": " gracefully",
  "8375": " grandparents",
  "8376": " gratitude",
  "8377": " granted",
  "8378": " gradually",
  "8379": " goodness",
  "8380": " goodbyes",
  "8381": " gobble",
  "8382": " goals",
  "8383": " glittering",
  "8384": " gleefully",
  "8385": " glittered",
  "8386": " gliding",
  "8387": " girly",
  "8388": " giggles",
  "8389": " giants",
  "8390": " gentleness",
  "8391": " gathering",
  "8392": " gardens",
  "8393": " grip",
  "8394": " googly",
  "8395": " gonna",
  "8396": " geese",
  "8397": " gawk",
  "8398": " galloped",
  "8399": " fuzzy",
  "8400": " furious",
  "8401": " frightening",
  "8402": " friendships",
  "8403": " foxes",
  "8404": " forts",
  "8405": " forgiveness",
  "8406": " forests",
  "8407": " forehead",
  "8408": " forming",
  "8409": " footprints",
  "8410": " flowing",
  "8411": " floppy",
  "8412": " flesh",
  "8413": " fluffiest",
  "8414": " flown",
  "8415": " fits",
  "8416": " firefighters",
  "8417": " finishing",
  "8418": " finishes",
  "8419": " final",
  "8420": " fills",
  "8421": " filling",
  "8422": " figures",
  "8423": " fizzy",
  "8424": " fives",
  "8425": " fiery",
  "8426": " fiber",
  "8427": " fetched",
  "8428": " festive",
  "8429": " ferris",
  "8430": " ferocious",
  "8431": " fellow",
  "8432": " feeds",
  "8433": " fearless",
  "8434": " feast",
  "8435": " fashions",
  "8436": " fascination",
  "8437": " farmyard",
  "8438": " familiar",
  "8439": " fairer",
  "8440": " failed",
  "8441": " fail",
  "8442": " faced",
  "8443": " fuming",
  "8444": " frills",
  "8445": " fished",
  "8446": " fame",
  "8447": " extraordinary",
  "8448": " exploration",
  "8449": " exploded",
  "8450": " explode",
  "8451": " experiences",
  "8452": " examined",
  "8453": " expected",
  "8454": " environment",
  "8455": " entranced",
  "8456": " engulf",
  "8457": " engrossed",
  "8458": " energetic",
  "8459": " encouragement",
  "8460": " encountered",
  "8461": " encounter",
  "8462": " ensued",
  "8463": " elated",
  "8464": " eggshell",
  "8465": " echoes",
  "8466": " eagle",
  "8467": " eachother",
  "8468": " earn",
  "8469": " dropping",
  "8470": " driveway",
  "8471": " dripping",
  "8472": " dripped",
  "8473": " drip",
  "8474": " drifted",
  "8475": " drift",
  "8476": " dreamily",
  "8477": " drawers",
  "8478": " droopy",
  "8479": " donkey",
  "8480": " dolphins",
  "8481": " disturbing",
  "8482": " displays",
  "8483": " disgusted",
  "8484": " discussed",
  "8485": " disagree",
  "8486": " discouraged",
  "8487": " dining",
  "8488": " differences",
  "8489": " dialed",
  "8490": " details",
  "8491": " desserts",
  "8492": " despite",
  "8493": " desperately",
  "8494": " designed",
  "8495": " desire",
  "8496": " demands",
  "8497": " demanding",
  "8498": " delaying",
  "8499": " declared",
  "8500": " device",
  "8501": " defeat",
  "8502": " dangers",
  "8503": " dances",
  "8504": " dunked",
  "8505": " drenching",
  "8506": " ditch",
  "8507": " dip",
  "8508": " die",
  "8509": " denting",
  "8510": " den",
  "8511": " dedication",
  "8512": " daunting",
  "8513": " dates",
  "8514": " darlings",
  "8515": " daring",
  "8516": " damage",
  "8517": " daisies",
  "8518": " cutest",
  "8519": " curtains",
  "8520": " cursed",
  "8521": " current",
  "8522": " curls",
  "8523": " cupcakes",
  "8524": " cuddly",
  "8525": " cuddles",
  "8526": " curiosity",
  "8527": " crunchiest",
  "8528": " crowds",
  "8529": " croaking",
  "8530": " croaked",
  "8531": " crept",
  "8532": " creepy",
  "8533": " creaking",
  "8534": " creak",
  "8535": " crashing",
  "8536": " crashes",
  "8537": " crabs",
  "8538": " crafted",
  "8539": " cracked",
  "8540": " crouched",
  "8541": " crouch",
  "8542": " cowboys",
  "8543": " countryside",
  "8544": " coughing",
  "8545": " counts",
  "8546": " cotton",
  "8547": " cottage",
  "8548": " correctly",
  "8549": " copying",
  "8550": " cooperate",
  "8551": " control",
  "8552": " consider",
  "8553": " conservation",
  "8554": " consequences",
  "8555": " conquered",
  "8556": " connection",
  "8557": " conflict",
  "8558": " confidently",
  "8559": " concert",
  "8560": " concerned",
  "8561": " completing",
  "8562": " complained",
  "8563": " compared",
  "8564": " comforts",
  "8565": " combs",
  "8566": " combed",
  "8567": " community",
  "8568": " collars",
  "8569": " collecting",
  "8570": " colder",
  "8571": " coordination",
  "8572": " condition",
  "8573": " coaster",
  "8574": " clowns",
  "8575": " cloudy",
  "8576": " closing",
  "8577": " closes",
  "8578": " climbers",
  "8579": " climber",
  "8580": " climax",
  "8581": " clicks",
  "8582": " cleaner",
  "8583": " clearing",
  "8584": " cleared",
  "8585": " classmate",
  "8586": " clue",
  "8587": " clarinet",
  "8588": " chopped",
  "8589": " choices",
  "8590": " chirping",
  "8591": " childhood",
  "8592": " cheapest",
  "8593": " chefs",
  "8594": " cheesy",
  "8595": " cheeks",
  "8596": " chatting",
  "8597": " charity",
  "8598": " charged",
  "8599": " chop",
  "8600": " chin",
  "8601": " chief",
  "8602": " chats",
  "8603": " characters",
  "8604": " centre",
  "8605": " center",
  "8606": " celebration",
  "8607": " celebrating",
  "8608": " catcher",
  "8609": " cartwheels",
  "8610": " cares",
  "8611": " captivated",
  "8612": " candies",
  "8613": " campground",
  "8614": " campers",
  "8615": " cacti",
  "8616": " caution",
  "8617": " cafe",
  "8618": " cultures",
  "8619": " cucumber",
  "8620": " cores",
  "8621": " cm",
  "8622": " cashier",
  "8623": " cages",
  "8624": " buzzed",
  "8625": " buys",
  "8626": " buying",
  "8627": " butts",
  "8628": " bushy",
  "8629": " business",
  "8630": " bursts",
  "8631": " burnt",
  "8632": " bumps",
  "8633": " broom",
  "8634": " brightest",
  "8635": " breathed",
  "8636": " bravery",
  "8637": " brains",
  "8638": " bruises",
  "8639": " bows",
  "8640": " bouncy",
  "8641": " bouncing",
  "8642": " bottoms",
  "8643": " bothers",
  "8644": " bothered",
  "8645": " booked",
  "8646": " boss",
  "8647": " boiling",
  "8648": " bobbed",
  "8649": " blueberry",
  "8650": " blooms",
  "8651": " blooming",
  "8652": " bloomed",
  "8653": " blinking",
  "8654": " bleats",
  "8655": " blankets",
  "8656": " blues",
  "8657": " blub",
  "8658": " blast",
  "8659": " bland",
  "8660": " blame",
  "8661": " blade",
  "8662": " birthdays",
  "8663": " birdy",
  "8664": " bicycles",
  "8665": " bends",
  "8666": " bending",
  "8667": " belongings",
  "8668": " belts",
  "8669": " behaviour",
  "8670": " becomes",
  "8671": " batteries",
  "8672": " baths",
  "8673": " bathing",
  "8674": " basketball",
  "8675": " banner",
  "8676": " banged",
  "8677": " balanced",
  "8678": " badges",
  "8679": " backward",
  "8680": " bakes",
  "8681": " bait",
  "8682": " backed",
  "8683": " bunch",
  "8684": " bouquet",
  "8685": " bound",
  "8686": " blessing",
  "8687": " bitten",
  "8688": " biking",
  "8689": " berry",
  "8690": " beneath",
  "8691": " bamboo",
  "8692": " awoken",
  "8693": " awoke",
  "8694": " awesome",
  "8695": " aware",
  "8696": " awake",
  "8697": " avoided",
  "8698": " attempts",
  "8699": " attempted",
  "8700": " attacking",
  "8701": " attaching",
  "8702": " attitude",
  "8703": " attentive",
  "8704": " attacked",
  "8705": " assembled",
  "8706": " artwork",
  "8707": " arriving",
  "8708": " arrives",
  "8709": " arrival",
  "8710": " arranged",
  "8711": " appreciated",
  "8712": " applause",
  "8713": " appears",
  "8714": " appropriately",
  "8715": " apologizes",
  "8716": " anybody",
  "8717": " anticipation",
  "8718": " antennas",
  "8719": " annoying",
  "8720": " annoyed",
  "8721": " announced",
  "8722": " announce",
  "8723": " angrily",
  "8724": " ambitious",
  "8725": " ambition",
  "8726": " amusing",
  "8727": " amusement",
  "8728": " among",
  "8729": " alongside",
  "8730": " allows",
  "8731": " allow",
  "8732": " allergic",
  "8733": " airplanes",
  "8734": " afterall",
  "8735": " aeroplanes",
  "8736": " adored",
  "8737": " addition",
  "8738": " advantage",
  "8739": " adaptable",
  "8740": " acts",
  "8741": " achieved",
  "8742": " accidents",
  "8743": " accomplishment",
  "8744": " ache",
  "8745": " aback",
  "8746": " awe",
  "8747": " astronauts",
  "8748": " aroma",
  "8749": " aisle",
  "8750": " aid",
  "8751": " affect",
  "8752": " Whoever",
  "8753": " Whistling",
  "8754": " Wriggle",
  "8755": " Woof",
  "8756": " Wish",
  "8757": " Wild",
  "8758": " Well",
  "8759": " Watch",
  "8760": " Upon",
  "8761": " Underneath",
  "8762": " Unfortunately",
  "8763": " Tuesdays",
  "8764": " Trouble",
  "8765": " Thanks",
  "8766": " Two",
  "8767": " Turtle",
  "8768": " Turns",
  "8769": " Try",
  "8770": " Triangle",
  "8771": " Toys",
  "8772": " Terrified",
  "8773": " Tell",
  "8774": " Taking",
  "8775": " Tails",
  "8776": " Tag",
  "8777": " Steel",
  "8778": " Steak",
  "8779": " Stop",
  "8780": " Still",
  "8781": " Spirit",
  "8782": " Spicy",
  "8783": " Snake",
  "8784": " Smile",
  "8785": " Show",
  "8786": " Seeing",
  "8787": " Swamp",
  "8788": " Surprisingly",
  "8789": " Sure",
  "8790": " Splash",
  "8791": " Spiders",
  "8792": " Sir",
  "8793": " Silence",
  "8794": " Serving",
  "8795": " Seat",
  "8796": " School",
  "8797": " Say",
  "8798": " Sailors",
  "8799": " Roar",
  "8800": " Run",
  "8801": " Repeat",
  "8802": " Rectangle",
  "8803": " Really",
  "8804": " Rain",
  "8805": " Pretending",
  "8806": " Praying",
  "8807": " Poor",
  "8808": " Pond",
  "8809": " Party",
  "8810": " Paper",
  "8811": " Only",
  "8812": " Officer",
  "8813": " Oval",
  "8814": " Of",
  "8815": " Nothing",
  "8816": " Nobody",
  "8817": " Never",
  "8818": " Nations",
  "8819": " Mattress",
  "8820": " Mud",
  "8821": " Move",
  "8822": " Moo",
  "8823": " Meanwhile",
  "8824": " Making",
  "8825": " Learn",
  "8826": " Lying",
  "8827": " Luckily",
  "8828": " Lots",
  "8829": " Listen",
  "8830": " Linda",
  "8831": " Life",
  "8832": " Lastly",
  "8833": " Knives",
  "8834": " Kindness",
  "8835": " Keep",
  "8836": " Immediately",
  "8837": " Hello",
  "8838": " Heads",
  "8839": " Horses",
  "8840": " Hold",
  "8841": " History",
  "8842": " Hippo",
  "8843": " Happy",
  "8844": " Goodnight",
  "8845": " God",
  "8846": " Grumpy",
  "8847": " Greedy",
  "8848": " Great",
  "8849": " Gently",
  "8850": " Frog",
  "8851": " France",
  "8852": " Forgiving",
  "8853": " Forgiveness",
  "8854": " Fun",
  "8855": " Frozen",
  "8856": " Fribbit",
  "8857": " Flutter",
  "8858": " Fleas",
  "8859": " Fishing",
  "8860": " Fish",
  "8861": " Fireworks",
  "8862": " Fighting",
  "8863": " Especially",
  "8864": " Eat",
  "8865": " Does",
  "8866": " Dinner",
  "8867": " Dragon",
  "8868": " Dog",
  "8869": " Deal",
  "8870": " Day",
  "8871": " Close",
  "8872": " Choose",
  "8873": " China",
  "8874": " Catch",
  "8875": " Canada",
  "8876": " Curiosity",
  "8877": " Cream",
  "8878": " Crazy",
  "8879": " Comets",
  "8880": " Cheese",
  "8881": " Cars",
  "8882": " Carefully",
  "8883": " Bye",
  "8884": " Bugsy",
  "8885": " Boom",
  "8886": " Batteries",
  "8887": " Although",
  "8888": " Axes",
  "8889": " Around",
  "8890": " Anytime",
  "8891": " Another",
  "8892": " Amelia",
  "8893": " Air",
  "8894": " Accidents",
  "8895": " ''",
  "8896": " \"'",
  "8897": " omelette",
  "8898": " illegal",
  "8899": " Yoga",
  "8900": " Yet",
  "8901": " Quacky",
  "8902": " Okay",
  "8903": " 9",
  "8904": " 8",
  "8905": " 4",
  "8906": " 10",
  "8907": "\n  "
}