  t
h e
  a
  s
  w
n d
 t he
e d
  b
 t o
 a nd
  h
  f
i n
  T
 w a
r e
i t
o u
  d
  l
  c
  p
a y
  m
e r
 wa s
o m
 T he
  he
i s
  n
a r
o n
l l
 s a
i d
i m
 h a
  S
o t
  g
in g
a t
a n
e n
l e
o r
a m
i r
e t
  H
  it
 The y
 t h
i g
i l
  in
 p l
 H e
  "
o w
r i
v er
u t
  u
 pl ay
e s
  r
it h
 sa id
p p
 w ith
  o
O n
 d ay
o o
  y
k ed
 he r
  I
 S he
 s t
l d
 b e
 h is
c e
 T im
k e
  e
n t
 b ig
c k
 y ou
ver y
u n
  on
e nd
 ha pp
  L
a ll
v e
il y
 n ot
 d o
 l i
ri end
he r
 f riend
 the y
a d
 u p
 ha d
 w e
 wa nt
  M
 o f
  B
s t
it t
s e
 happ y
' s
en t
 sa w
On e
ou ld
  very
 s o
 m om
 f or
 th at
 s h
itt le
c h
 l ittle
ou nd
 s he
 t im
 n am
 tim e
 n e
. "
  k
 L ily
 s m
 the re
 nam ed
 we re
! "
 b ut
T he
 b o
 want ed
 T om
e l
  is
v ed
 I t
 friend s
ou t
h t
 a n
ir d
a l
om e
 w ent
 to o
u g
 w h
 b ird
r y
id e
On ce
 l o
a ke
 he l
 a ll
 l oo
t er
 hel p
 up on
 to y
u e
i ll
 d id
r a
 f un
g et
 a s
  j
o re
am e
u r
 do g
i nd
  A
get her
  re
l y
 s e
 a t
 b a
 to gether
 t re
 c at
i c
t ed
a x
 r o
 the ir
oo d
 c ould
 a re
 b all
e c
ar k
 f r
 c an
w ay
a in
 h im
 play ed
 g o
? "
 the m
ar d
 k n
 sa d
 M ax
' t
he d
 l e
 g ir
 m an
 gir l
ot her
u m
 bo y
he n
u l
 tre e
 ha ve
 st ar
 c l
  out
m y
 ba ck
 lo ved
 loo ked
 f ound
h ing
ou g
on e
 s c
 S ue
 s p
 p ark
 c ar
 m e
om et
 li ke
a re
r ound
f ul
on g
ow n
 l a
 S am
 be c
 li ked
s ide
e ll
 w ould
 se e
 s ay
 B ut
el t
 star ted
o p
 n o
 a g
 f a
 f elt
ig ht
 s omet
 c ame
 ne w
 as ked
  One
p ot
Y ou
ar ed
o b
 a l
ou se
es t
ing s
  W
 sm all
il ed
oug ht
 m ad
  other
i ce
ri ed
oo k
 g ood
i a
 b r
 sm iled
 a way
 S pot
s s
 m ake
a g
 somet hing
 mad e
 p ut
 w or
d d
 B en
 fr om
 wh at
 f ind
 h ome
 r an
u c
 wa l
en ed
 e x
 th ought
ar n
 ag ain
 c o
  J
 play ing
a k
 s w
 m u
 la ug
 e very
 d own
 f l
 h ouse
 say s
 a round
 toy s
 f e
 s ome
i le
 bo x
is h
i f
t y
a ch
 too k
 sc ared
 s un
 m y
 le arn
  F
u re
uc y
, "
 the n
 M ia
 th ings
 loo k
 l ot
u ck
n y
 w ill
 w hen
pp ed
re t
ot h
  You
i ck
b le
ou d
 li ved
e p
a p
i e
 p u
 kn ow
 you r
q u
 p r
u st
a ve
 t ried
  D
 c h
a s
all y
T h
 wh o
 p o
nd er
um p
it ed
 L ucy
 d ad
T im
 g ot
 m ore
 kn e
 d ec
  v
a u
 h ug
an t
L ily
 g et
an k
 an y
 B ob
 a b
� �
is t
 M om
f ter
 r ed
 b l
 ab out
 man y
 wa ter
 ro om
 kne w
 b est
ou s
 p ret
au se
 in t
er s
The y
 learn ed
 laug hed
is e
 ex c
 c are
 S o
o g
 s l
 e at
 p ic
 o p
id ed
 th is
 p e
f e
 b oth
  E
it e
 g ra
 bec ause
 dec ided
i ve
 r un
 g re
ur p
 u n
 h o
in k
 A nd
es s
 on e
 bec ame
 fe el
  ke
a ce
 b u
 j ump
u dd
 to ld
 m o
ar a
 sh ow
way s
Y es
 al ways
 out side
 s or
 ro ck
 exc ited
 l ong
 t a
 in side
T om
 int o
W h
 st r
 f ish
 a m
 to w
 u nder
 e ach
urp r
in y
 fa st
 g ave
 s k
 n ice
 s urpr
 mu ch
s ed
g ed
ou r
 sor ry
v en
is ed
 th an
le w
 t ur
 ne ed
 o ld
im al
 an imal
 did n
 wal k
 j ust
B ut
 ha nd
f f
a ck
 wal ked
 s n
b y
f t
 happ ened
  or
 cl o
et ter
he re
 c le
r o
 pret ty
 f ly
a se
 t ry
 t r
  en
 k ind
 ne ar
 st or
 b ook
 h ow
 f i
 wa t
in e
i on
 l ist
c hed
 W e
g ry
g e
l or
 t ake
 c a
ig h
 animal s
at e
 c ake
b b
 b etter
v ing
 sk y
 d an
ur t
  ide
  if
 ne ver
 it s
 lot s
 fl ow
n n
 t w
 l et
 ide a
 be ar
  C
 f ood
 T h
r om
o ll
 m ag
 H is

 

 lo ve
 b y
 sh are
or t
op le
ec i
m ore
 any more
 he ard
udd en
 f lew
 tur n
 c om
 t e
 d on
 co lor
eci al
 sp ecial
 pe ople
 cle an
 E very
p ec
p l
  qu
r m
udden ly
 do or
 b ug
u ff
M om
 surpr ised
re am
e x
 f am
 care ful
 S ara
 c ome
 f ore
 e nd
 e ven
 H er
nn a
Th ank
 r a
 g round
 f ar
r ow
 st ill
 o ver
 hug ged
 h urt
 fr og
N o
 l oud
 do ll
 d ra
k ay
 re ad
v es
L et
 pic ked
 mag ic
 h igh
 sh iny
 g l
 p a
 w ind
 than ked
 a fter
 The n
 fam ily
e m
 t ra
 h ard
 b ad
  P
pec ted
i z
ex pected
ard en
 un expected
 m ak
 g arden
 cl im
oo l
l f
' m
 clim b
uff y
ill y
 of f
 c ry
 sa fe
 op ened
il d
 br o
I t
  im
 F rom
s h
A s
 pr oud
 e ver
x t
um my
an e
 t al
  R
 c all
 tow n
 stor y
 ha t
 a pp
u ll
 list en
 wh ile
 sh ould
 k id
 be a
 I n
 u nt
 ne xt
 fore st
le ase
 c he
 bea ut
 st ay
or n
 r ain
 jump ed
 bl ue
 wa y
 sl ide
 c u
i p
 g ive
b e
 unt il
oug h
a nd
he s
b er
 str ong
 kid s
 S ally
l uffy
 s qu
i ful
 wor k
 p ar
 beaut iful
 A my
o y
g er
d y
 st ick
  K
c t
 so ft
 gre at
 flow ers
 an gry
 L et
 tw o
 sm ile
 n ow
 W hen
ag e
 show ed
 wat ch
 as k
p t
 th ink
 every one
 pl ace
t ure
N ow
 w here
 m et
 ha s
re w
itt y
W hen
 st o
 im p
 lo st
 happ ily
 cat ch
 F luffy
m a
dd ed
H e
 call ed
 p ain
 help ed
 b re
 he ar
u it
 le a
s o
i es
 pic ture
 d e
 al so
 wa rm
ir st
The n
 op en
ay be
a z
Th at
 J o
 y ell
 sto pped
 gre en
 g ame
o on
ll ed
is hed
L ook
 hand s
re e
 y ummy
 a d
 no ise
 f ell
le s
at h
is y
ir ed
 s ound
 li on
 sa nd
 po nd
 no dded
� �
 ha ving
 b ed
� �
un ny
 ke pt
 ke ep
 sun ny
 re m
bb it
 m ouse
 W h
v ent
re l
o c
f ore
H i
 w o
 car s
 at e
an ge
 u sed
 st ore
 o kay
 b ra
  z
t h
le ep
Wh at
 me an
 K itty
 A nna
W e
 h ill
 d if
 could n
oll y
 w r
 so on
 d r
ic y
d ay
a ir
C an
 m on
 be ing
 tal k
 sa t
 m ess
 dra w
 be fore
r ay
ke y
 t ired
 u se
 ho le
 he ad
 cl a
re ss
re ed
ar y
 u s
g an
 fi x
 far m
 f irst
j oy
 s ing
 e y
 d uck
l ed
e et
a ble
S he
  Now
ug ht
n ing
a isy
 y ard
 mom my
 be h
or al
o x
 wa it
 ra bbit
 en joy
 bird s
im es
i ed
 imp ort
 fl o
 fa ce
 D o
  our
ell o
H ello
  G
o ck
m an
 r ight
  “
se lf
A fter
 v o
 s leep
 friend ly
 ag reed
i ke
fe re
 wor ked
 walk ing
 sm ell
 import ant
 fr uit
 f in
 ey es
 dif fere
t ing
ir rel
S am
 to p
 squ irrel
 he re
ri ous
 tr uck
 p ick
 m oral
u ch
 turn ed
 th ing
 sw ing
 do es
 differe nt
 cu rious
 J ane
� �
h n
 par ty
 br ight
e ar
at her
 re al
 h op
 color s
t hing
s er
a il
 st op
 bra ve
oll ow
 t ri
 r ace
 go ing
 c ook
 ba g
  own
u s
 laug h
 for g
  ri
em ber
c le
 tre es
 sh ared
 s ong
 k it
 fun ny
 Th is
k es
el y
c ed
 sh out
 feel ing
 b unny
st le
Wh y
A t
 sn ow
 p lease
 other s
 mak ing
 f ollow
 c ried
is s
ig n
c hen
D on
 ta st
 kit chen
 j o
 gra ss
 br other
 be gan
W ow
M ax
 t all
 sw eet
 g i
 yell ow
 ta il
 pret end
 l ad
 h ot
 fa v
 co ld
ow l
ot t
 wor ry
 h un
 C an
o om
nd ma
B en
 look ing
 f ull
 c re
 c on
 M r
S ara
 sh o
 r u
 flo or
 dan ce
 bo at
 D ad
o l
k en
 vo ice
 ex pl
 beh ind
z y
udd y
 rem ember
 need ed
 ad vent
at ion
 d is
 clo ser
 book s
n g
by e
ar ing
ap er
 se es
or ite
 tra in
 sw im
 mo ve
 fav orite
 bro ken
a ss
 wat ched
S uddenly
 j u
 fa ir
 D aisy
i ous
S ue
 w et
 try ing
 ta ble
 pu s
 a c
a ched
 n ight
 h id
 c ut
 A ll
pp y
as ure
 look s
 fi re
 w ood
 mak es
 hun gry
 B uddy
 pl an
 p aper
 d ir
 c ou
 Th at
 S uddenly
 A s
il a
 somet imes
 re pl
 lea ves
 do ing
 d ark
 advent ure
J o
 th rew
 t ell
 read y
 m ight
 help ing
 bu ild
in s
 re st
 pu lled
 m at
 le ft
 g r
 g one
 d el
 Jo e
p e
S o
 t ak
 st e
 sl ow
 run ning
 qu ick
 pr om
 mom ent
 cla pped
w here
on ely
e b
 st uck
 re ached
 l onely
 good bye
 an other
st er
M ia
 p at
 l ess
 clo se
i ent
ec t
 wh y
 wa ll
 p i
 p en
 b ott
 Tim my
z z
v y
ic ed
at er
a c
 sw am
 d ream
 bre ak
 b it
 b ike
 al one
bb ed
 wa g
 th ank
 g row
 d in
 big ger
  ice
i x
er ed
 wa ved
 surpr ise
 s et
 repl ied
 pain t
 mon key
 m ar
 ho ld
 but ter
 be en
 am az
 a ir
out h
A nna
 r ide
 m outh
 c ra
 J ack
 cre at
' re
 t iny
 se en
 s illy
 rock s
 quick ly
 nam e
 n est
 gl ad
 flow er
 f ight
 enjoy ed
 com ing
 Every one
 A fter
 under st
 lad y
 jo in
 d one
 c ool
O kay
 wh ite
 shout ed
 p er
 list ened
 bro ke
 a r
ri es
r ough
 p ot
 climb ed
 F in
s ic
r ot
H er
 wo nder
 th rough
 pus hed
 on ly
 mu sic
 m ix
 less on
 f all
 dan ced
 d ro
 color ful
 ch air
 ball oon
uck y
p h
a vy
Th is
 tow er
 to uch
 re ach
 li kes
 ke y
 want s
 bl ock
 be l
 app le
ro om
one y
ed dy
as h
 sp l
 l ight
 he ld
 gi ant
 g ent
 butter f
ow er
d er
 wa ited
 re l
 picture s
 not iced
 j ob
 ho pped
 ha ir
 gra bbed
 g u
 bu y
 bu s
t on
n er
l c
 wor d
 some one
 sh ap
 cl oud
 ca stle
 ba by
 b ath
ll a
D o
 sp ot
 la nd
 gra ndma
 d ri
 d ress
 any thing
 a rm
 wr ong
 w ished
 mu st
 th row
 st u
 expl ore
 The re
 Mom o
z e
or d
S pot
O h
I n
 w on
 he avy
o s
ar t
 po in
 per f
 m other
 forg ot
 farm er
 e le
 dra g
 com p
 ch ild
 b lew
 M aybe
r ed
m b
 wor ld
 tre asure
 se a
 m ail
 ju ice
 follow ed
 fly ing
 every where
 c ow
 butterf ly
pp ing
ed al
an ce
 wind ow
 w ish
 v is
 se c
 p ink
 g if
 fair y
 drag on
 c ream
 br ought
 b or
 ask s
ray on
or m
ad ow
Jo hn
 wood s
 w he
 stay ed
 ro b
 po l
 c rayon
 block s
M aybe
L ucy
 th ree
 s it
 bott le
 So on
 Bob o
 B illy
q ue
le ss
iz ed
 w in
 pl ant
 f ill
 din ner
 cry ing
 but ton
  Z
ie ld
am es
 tre at
 think s
 sw ings
 star t
 rob ot
 pu ll
 pa ss
 p ig
 happ en
 fast er
 f ur
 eat ing
 dir ty
 Tom my
 tal ked
 s ure
 h it
 de ep
 con t
 ca nd
 Wh at
  owl
  O
oo p
en ny
 y og
 y ear
 vis it
 turn s
 st and
 run s
 re ally
 p et
 g ames
 f ree
 d ry
 w ise
 underst and
 tast y
 t ight
 ro lled
 r ound
 prom ised
 pa w
 lea f
 f ox
 f it
 e l
 dr ink
 b ite
 Mom my
 L ila
 In side
 B l
u b
nt s
d e
 we lc
 str ange
 p h
 h or
 el se
 clo sed
 car rot
 L e
ro ss
e ad
H is
B ob
 sn ack
 sec ret
 s is
 pr in
 gif t
 cu p
 br an
 be e
u ed
s et
ot hes
i et
ell a
ec es
eb ook
b o
a st
Wh ile
" .
 we ll
 w ings
 sp icy
 sc ary
 s ign
 ro pe
 remember ed
 qu iet
 pi eces
 not ebook
 l ake
 doll s
 cl othes
itt ing
ct or
 y es
 fin ished
 app les
ou p
itt en
is sed
! ”
 sp in
 sm o
 sis ter
 shap es
 sh aring
 or ange
 m ine
 fe w
ur n
m ing
 welc ome
 v ill
 sm art
 sh in
 pu zz
 le ave
 laug hing
 h ide
 cou nt
 ca ught
 Jo hn
 A t
  ve
un ch
un a
pp er
i ver
f u
e my
c o
am p
a ught
J ust
 with out
 se ar
 sc ream
 re c
 pu dd
 del ic
 T o
 E m
ph ant
oc ked
F rom
 w ra
 s itting
 s ide
 re s
 f is
 ele phant
 cont in
 b ar
 Bl ue
un e
s w
o ld
et er
ch ool
c y
ard s
 tw ins
 to day
 smile s
 smell y
 p ie
 gl ass
 en g
 cut e
 bl ack
 b uck
 an sw
ull y
orn ing
ig g
f ully
 sing ing
 sa ng
 perf ect
 p are
 own er
 m orning
 k ing
 hor se
 c orn
 c ave
 a ble
 B ird
 B ella

  
 t eddy
 t ap
 puzz le
 pu sh
 mon ster
 m um
 m in
 m edal
 m ap
 hug e
 him self
 fill ed
 d i
 contin ued
i ch
i ble
ger ous
at or
 wag ged
 stor ies
 st re
 sn ake
 sh r
 s chool
 p urp
 p ers
 duck s
 be ach
 amaz ing
 R emy
o st
m e
ir t
g g
fu sed
en ce
e e
b ox
 vill age
 shin ing
 pudd le
 o ven
 mo ved
 ex p
 eng ine
 e gg
 dog s
 dan gerous
 buck et
 b owl
 at t
 C h
st ead
o nd
n ot
c ing
bo ard
b ow
 snow man
 sa me
 rain bow
 r ad
 pu ppy
 pie ce
 p re
 p ower
 n ap
 j e
 hear t
 fis her
 f ield
 can not
 c our
ut e
r at
it ch
c ked
c hes
b ble
an o
 wor ried
 ri ver
 l unch
 k itten
 k ite
 fin ally
 b an
 Le o
 G ra
 Bob by
t o
s k
sk et
is es
ir p
in a
S ally
F in
 tra ck
 st one
 purp le
 pl ane
 pe ace
 p ath
 no se
 magic al
 m iss
 li ving
 get ting
 gent le
 fisher man
 f an
 e ar
 dro pped
 cour se
 cand y
 bug s
 be ll
 ba sket
s y
re ad
is a
en ch
He y
 tak ing
 stre et
 sa ck
 mat ch
 day s
 creat ive
 Em ma
um b
ug g
r ob
i pped
at ter
 wo ke
 sound s
 sc ar
 real ized
 pat ient
 pare nts
 fl ute
 do ctor
 d es
 Sara h
 E lla
re n
ra ct
in ed
il k
e ared
as ed
ad e
. ”
' ll
 scar f
 s uddenly
 ro ll
 ro ar
 j et
 in c
 gre w
 feel s
 en ough
 d rew
 care fully
 c ir
 bath rob
 b ri
 b ench
 b ark
 Th ank
t le
s qu
ll ie
le x
l ing
iz z
g ly
c es
b or
am a
ak es
 word s
 we ar
 up set
 tur key
 pr ob
 pa st
 on to
 me et
 m ilk
 j oy
 j og
 cl ap
 br own
 b arn
ump y
squ it
squit o
p es
le m
itt er
im i
il ing
ar p
ank et
a ur
S oon
P lease
O f
 u gly
 tr ou
 sh ook
 sh arp
 ro ad
 prob lem
 ph one
 mo st
 mo squito
 li ve
 le g
 la st
 h ig
 fe ather
 every thing
 bl anket
 bathrob e
 a nt
u p
u nt
th y
p ort
ou n
o se
izz a
f ish
ep end
aught y
al m
S t
Mom my
Fin ally
 tri p
 star s
 sh irt
 sh adow
 see m
 r ag
 pr une
 p ool
 ne igh
 hop e
 her self
 h ar
 com es
 bran ch
 ac orn
ve l
ss y
p et
ou nt
k s
get able
est ion
er a
e y
e re
c ess
az z
a f
G ood
 ve getable
 to oth
 te a
 stor m
 smell ed
 sl id
 sho es
 qu estion
 mu d
 m ot
 m ist
 l ate
 j am
 con fused
 co ver
 child ren
 car ry
 car pet
 bu sh
 bel ong
 b one
 M olly
our n
nd p
i re
es e
er ly
a le
O K
 z oom
 te ach
 par t
 p ile
 no d
 j ourn
 hig her
 gra b
 fore ver
 for get
 fix ed
 e as
 de ad
 c her
 ban an
 b ake
 J en
 D ucky
 Bird y
  er
o ve
ndp a
le t
ir th
i er
er ry
am ond
 year s
 whe el
 sh y
 s oup
 po em
 in v
 in stead
 hold ing
 hid ing
 hat s
 h oney
 fa ces
 di amond
 cook ies
 c alm
 bre ad
 br ing
 b ow
 ar ri
  ign
  -
it y
ie ve
d ge
c il
an g
L ila
 wa nd
 tri es
 to m
 tak es
 squ are
 pen cil
 no ises
 m issed
 land ed
 l ucky
 j ar
 gr umpy
 dri ver
 delic ious
 dad dy
 che ese
 amaz ed
 a v
 Ch irp
m p
iz zy
iz e
an ger
A my
 wr ite
 who le
 talk ing
 sp ray
 smo oth
 s uch
 n aughty
 mess y
 m oney
 kn ocked
 hug s
 h oop
 dro ve
 dr op
 d est
 cl oth
 che w
 b irth
un g
ount ain
is k
er v
an y
B e
? ”
 wonder ful
 v al
 te ar
 st ir
 put s
 p ress
 p izza
 mot or
 mo v
 li fe
 hop ed
 g em
 f ather
 f ake
 er as
 dir t
 dan cing
 cook ie
 co ll
 cloud s
 c ri
 build ing
 answ er
 W ith
 P lease
 M imi
 Fin ally
ut s
un k
uit ar
u ce
or s
ll o
ld erly
isk ers
ir it
ie ved
f ort
erv ous
el p
ck et
c c
al k
a pp
 yog a
 yell ed
 wonder ed
 tr ue
 swim ming
 str anger
 st ri
 sp e
 p in
 n ervous
 help ful
 g uitar
 f il
 e lderly
 dis app
 co in
 clo ck
 car ried
 bar ked
 b icy
 Wh y
 S omet
 M ark
 D on
 A nn
urn ed
ul ar
ro y
pec t
oo f
om an
it ing
er y
er ri
al thy
St op
 wait ing
 w oman
 w ip
 tow ards
 sho e
 sear ched
 sa il
 s el
 prom ise
 poin ted
 pi ano
 ne ck
 n et
 mar ch
 go es
 gent ly
 fight ing
 f old
 expl ain
 dest roy
 dec or
 corn er
 clean ed
 ch ased
 bicy cle
 bel ieve
 arm s
 app eared
 any one
 ac ross
  icy
  ent
ur se
um ber
r ing
ot ter
ess ie
c ap
am ed
J ack
H elp
 z ip
 work ing
 whe at
 w is
 vegetable s
 tur tle
 th in
 te ac
 t ie
 t erri
 str ing
 sp irit
 sleep y
 she ep
 sh op
 sel fish
 sand w
 s er
 rec ord
 pers on
 not hing
 not e
 im ag
 fe ed
 eas y
 de er
 che ered
 bo ssy
 birth day
 ba nd
 as h
 Wh iskers
 T iny
  otter
  es
  On
  No
u ally
s p
or row
l ower
ff le
ere st
er t
D ad
 v i
 trou ble
 tom orrow
 to uc
 to ast
 tast e
 t ag
 st ret
 se ed
 scream ed
 ru de
 re t
 r h
 prin ce
 paw s
 pass port
 p un
 p ract
 neigh bor
 near by
 m ark
 lad der
 la w
 fe et
 d ull
 creat ure
 ch ange
 bus y
 b oun
 a f
 Somet imes
 P olly
 I f
 B u
 B e
  '
u pp
r n
ol in
o ot
il ty
if f
g y
er os
d en
ck s
b r
at s
ad o
M y
L ater
 vi olin
 tr ump
 touc hed
 terri ble
 teac her
 sw ord
 stick s
 spl ash
 song s
 sn ee
 slow ly
 sh ake
 s upp
 s uc
 s que
 poin t
 peace ful
 pain ted
 p op
 p ill
 o b
 my ster
 long er
 int erest
 ign or
 hid den
 he llo
 gu ilty
 exp lor
 che er
 c omet
 bor ing
 banan a
 b ought
 b itter
 ask ing
 arri ved
 al ong
 adventure s
 a ct
 To gether
 S t
 L isa
 J ust
 J erry
y ard
rew or
ra id
n ess
id ge
ick en
i o
et h
cap e
Wh o
 yog urt
 watch ing
 wa ve
 v ase
 trump et
 treat s
 spl as
 sp o
 so l
 she ll
 s our
 rel ieved
 rad io
 power ful
 pl ate
 mov ie
 mo d
 me asure
 mat ter
 l ay
 l amp
 inc red
 hear s
 hair y
 forg ive
 fe ar
 f ence
 dri ve
 crayon s
 cle ver
 cla ss
 cir cle
 ch icken
 care less
 c e
 bo ot
 back yard
 b al
 af raid
 ad m
 T r
 R u
 Gra ndma
 Chirp y
ul u
st al
r or
p id
ol ate
oc olate
oc eros
in oceros
ig ator
i ant
el ery
cy cle
ar ge
M olly
K itty
 wra p
 was n
 w ore
 thank ful
 sque e
 so ld
 sl ipped
 ro se
 ri ch
 rh inoceros
 re g
 pol ice
 n uts
 motor cycle
 mail box
 mag n
 love ly
 lo ves
 l arge
 interest ing
 incred ible
 ha lf
 h on
 fi rewor
 f ing
 d ist
 d ig
 cry stal
 cri b
 ch ocolate
 ch alk
 c elery
 bu bble
 bre ath
 be ak
 all igator
 T V
 Bu zz
 B unny
y ing
um sy
os aur
mb re
m ost
m er
m ent
im p
i an
eb ra
T o
S ure
Jo e
C ome
 z ebra
 we aring
 we ak
 w ild
 un cle
 u mbre
 stu pid
 ste ak
 sp read
 sp ark
 seem ed
 see k
 sc atter
 sa uce
 sa l
 s ick
 rock et
 res pect
 pre s
 pill ow
 p an
 p ack
 n ation
 mom s
 mix er
 min t
 m ama
 l ater
 k iss
 jump ing
 h ur
 gra pes
 g en
 fl ame
 eras er
 e ag
 d izzy
 cl umsy
 cl ub
 cat s
 c r
 bor ed
 ash amed
 al most
 a dd
 S ome
 S n
 M any
 J enny
 J ake
 C ome
  ind
ul t
u al
ss ed
s es
oom y
mb ar
mbar ra
ll iant
ir ror
i v
i pp
c ase
Tom my
M um
 you ng
 y arn
 was h
 wa ffle
 w ide
 umbre lla
 ta ught
 ste pped
 st ream
 st ood
 st air
 ru b
 r id
 r are
 pol ite
 pe pper
 p ow
 p ir
 m op
 m irror
 m aybe
 loo p
 gra pe
 gr ate
 gl oomy
 g ather
 fl ag
 fil m
 f ig
 e mbarra
 d ug
 bri lliant
 book case
 bal ance
 an g
 S h
 L una
 H ow
 G o
 D an
w ber
vent ually
ra wber
or ry
oo se
ig ent
er ries
epend ent
ell igent
el s
e ver
az e
ass ion
as k
am era
al ous
ac es
B illy
 would n
 wo lf
 te eth
 t ied
 t id
 swam p
 sor t
 small er
 sho ot
 she lf
 sear ch
 r ise
 pretend ed
 pres ent
 po cket
 lo se
 le op
 la b
 l etter
 kne e
 je alous
 j olly
 int elligent
 ind ependent
 h um
 gu ard
 grate ful
 go ld
 gi ves
 g un
 g igg
 g ear
 find ing
 dr um
 dr ank
 del iver
 dec ide
 d ough
 comp assion
 com b
 co at
 c ross
 c ard
 c amera
 c age
 ball s
 b erries
 av oc
 Z oom
 The ir
 P enny
 O llie
 J ill
us ual
ur ch
l ock
ig er
at o
at es
ar l
af fe
H ow
 wra pped
 wh ist
 w ing
 use ful
 underst ood
 un usual
 st ep
 smo ke
 sc rat
 sa ved
 pu p
 press ed
 plant s
 pick s
 or gan
 myster ious
 mist ake
 me al
 magn et
 lo ad
 li ves
 leop ard
 l ine
 k ick
 h orn
 gu ess
 gir affe
 feather s
 f ool
 explor ing
 embarra ssed
 dream ed
 din osaur
 cou ch
 compassion ate
 cle ar
 c ries
 bott om
 black board
 a unt
 L ulu
 J im
 A lex
ut es
us ie
p ar
ol i
l and
ia ble
i que
h ip
er ce
cc oli
and y
 val ue
 un ique
 th u
 sw itch
 st ack
 spot ted
 splas hed
 spl it
 sp ring
 so ck
 shr ink
 seed s
 se par
 sandw ich
 sand c
 sand box
 sa ve
 s il
 r ough
 r at
 pow der
 no isy
 n urse
 mo ving
 min utes
 me ant
 m ill
 m aze
 lo ck
 k issed
 journ ey
 is land
 hon est
 hard er
 gl ow
 get s
 fig ure
 fi erce
 f est
 exc iting
 es cape
 dis co
 co zy
 cher ries
 ch urch
 bu ll
 bro ccoli
 beh ave
 avoc ado
 P eter
 B essie
umb led
ter n
stle ss
rat ed
p ill
pill ar
orm ous
orm al
ob y
m et
iv al
is er
iser able
in al
ig inal
ic ked
fort able
es day
er pillar
a stle
S orry
 z oo
 wor m
 wh ale
 we ep
 wa ke
 w itch
 tr ust
 tid y
 thought ful
 te am
 sun f
 suc cess
 stret ch
 spe ak
 so ap
 sandc astle
 rel iable
 rel ax
 re stless
 r oof
 r ing
 po or
 po le
 po ked
 pl aces
 ph ot
 par rot
 pa le
 p our
 or iginal
 n ormal
 mu le
 mo on
 might y
 me at
 m iserable
 li br
 la zy
 k icked
 it ch
 ignor ant
 ho pping
 hel met
 fur ry
 fool ish
 flo at
 fin ish
 fest ival
 fan cy
 f ine
 en ormous
 eag er
 draw ing
 decor ate
 d ust
 cover ed
 co ins
 ch ar
 cat erpillar
 can e
 ca ct
 bran ches
 be es
 M y
 F red
w eet
um e
t ion
ow man
ott en
m on
in ess
id ent
g ust
e k
co a
ce let
M ummy
 tow el
 thu nder
 th irst
 te le
 tast ed
 shap e
 sh ark
 separ ate
 se ll
 sc are
 reg ular
 rad ish
 ra ven
 r ot
 play ful
 pat ch
 p ri
 not ice
 nod s
 mu sh
 mar ble
 man ag
 lot ion
 lo g
 libr ary
 le mon
 le ather
 in k
 imp ress
 help less
 ha m
 gra nd
 g as
 friends hip
 f ountain
 f oot
 dis gust
 des ign
 delic ate
 cra zy
 cow s
 co coa
 che ap
 cact us
 brother s
 bra celet
 br idge
 bed room
 Sn owman
 M ary
  N
x e
ung le
sp it
spit al
sh ine
our s
n own
mp ty
lex ible
l ves
l ight
k nown
ist ent
i ppy
i pper
h ost
g u
f a
er ous
ar m
an ged
a ff
M e
F luffy
D aisy
 wag on
 un known
 tim es
 thirst y
 th ough
 stu d
 strong er
 st aff
 spin ning
 sp ort
 sold ier
 so ar
 sk in
 s end
 ru ined
 ro de
 ri ce
 re p
 prin cess
 pers istent
 pain ting
 p edal
 or d
 mix ed
 m ummy
 live ly
 li p
 leg s
 ju icy
 join ed
 j ungle
 it self
 inv ited
 ho spital
 he althy
 happ iness
 gen erous
 g host
 g ate
 f lexible
 explain ed
 ear th
 e mpty
 dra in
 disgust ing
 creature s
 cra w
 co st
 cheer ful
 char ming
 c oo
 boy s
 boun ce
 bec ome
 balloon s
 app l
 ang el
 ag ree
 ac c
 a xe
 Tr ue
 D olly
 C at
  3
z ed
w ard
v ator
ut om
utom ob
utomob ile
ust rated
un n
re sh
rawber ry
pl ay
p ack
ous es
on t
it her
iss ors
ic ult
f icult
ce an
au d
W here
The ir
Sara h
J ane
G ra
 wa nder
 ve il
 v end
 v an
 t est
 sun shine
 stand ing
 st umbled
 st uff
 sol ve
 sh ine
 sc issors
 sc ale
 sal ad
 sa f
 read ing
 ra ced
 qu it
 pr ot
 pat tern
 p ay
 o il
 o cean
 mush room
 me adow
 mark et
 make up
 m ind
 m ed
 li cked
 l ying
 kind ness
 her o
 he dge
 ha ng
 h ouses
 g ray
 fr ont
 fr ight
 fr ame
 for th
 fing er
 fam ous
 f resh
 f our
 exc ite
 ex am
 ele vator
 disco ver
 dif ficult
 des k
 coll ar
 clean ing
 cl iff
 che st
 ch anged
 ce iling
 appl aud
 al arm
 acc ident
 a utomobile
 a dded
 T weet
 S usie
 R ob
 M um
 J azz
  U
ur ing
ug h
ug ar
se lves
re en
ra g
ot e
om es
o ppy
n am
k ing
is p
im e
il t
i kes
i b
gu in
g round
et e
epend able
ell y
b in
a w
a pped
E very
 wr ote
 wh isp
 w ool
 un lock
 tra sh
 tra p
 tr ade
 to ugh
 tear s
 te mp
 t iger
 sweet ie
 start s
 squee ze
 spo ke
 sp oon
 sp ill
 snee ze
 snack s
 sm iling
 shr imp
 sh ut
 se at
 say ing
 sa iled
 s ugar
 ret urned
 rem ind
 ran ch
 pot ato
 play er
 pir ate
 pig s
 phot o
 pen guin
 need s
 nam es
 n ail
 mod est
 manag ed
 light s
 li ft
 le an
 le ad
 l umber
 journ al
 j elly
 ho se
 happen ing
 gr oup
 fruit s
 fright ened
 fr ustrated
 fear ful
 end ing
 e ventually
 draw ings
 do ve
 dis play
 de af
 d ependable
 cra ck
 coo ked
 cl ay
 cher ry
 carrot s
 ca bin
 c ro
 bu ilt
 bri ck
 bath room
 b atter
 b at
 am b
 al ert
 To day
 R ina
y er
y e
us ia
usia st
usiast ic
u be
op e
og gy
oc o
lc ano
l ass
lass es
ig hed
ht ray
he ad
h usiastic
g lasses
f ted
e ater
aught er
at ient
at ch
as ks
ar rel
W ell
To gether
L isa
A nd
 your self
 wip ed
 vo lcano
 v ine
 t una
 t ube
 t ick
 sunf lower
 sun glasses
 stu dy
 stri pes
 st ation
 sh ocked
 sc reen
 s ur
 rid ing
 qu arrel
 pun ish
 prot ect
 po st
 plan et
 pe ar
 past a
 organ ized
 open s
 op era
 on es
 o k
 miss ile
 mar ry
 law yer
 l it
 know ing
 kn ock
 key s
 je w
 j unk
 imp atient
 hurt s
 h omes
 gra ndpa
 g ar
 fold er
 fl ash
 f ive
 f at
 ent husiastic
 enjoy ing
 en v
 drop s
 d aughter
 cir c
 car t
 c ity
 c amp
 bus hes
 bor row
 bl ow
 bark s
 ba ld
 b urned
 as leep
 as htray
 ar row
 a p
 a nts
 T eddy
 P ete
 M iss
 L iz
 Gra ndpa
 G ive
 E llie
 Ben ny
 And y
  ed
ul if
ulif lower
ul ance
uc et
ub by
se um
que en
pl ace
ow ed
op h
nd ar
nam ent
le pt
le ndar
l oo
in ted
in ary
ig loo
g est
ex t
d le
d ile
co dile
ch or
c ient
bb orn
b all
aur ant
at ue
at ed
ap on
ag es
Tim my
The re
S ee
I f
He re
B ye
 your s
 y ield
 wis hes
 wh ich
 weep ing
 we ird
 we apon
 wall s
 wa rn
 vend or
 us ing
 to rn
 temp le
 tak en
 t ire
 success ful
 stu bborn
 stop s
 ste al
 st atue
 squ ash
 sp un
 so fa
 sleep ing
 show ing
 s lept
 s ize
 s ight
 s ighed
 rest aurant
 ra ise
 question s
 pus hes
 pun ished
 pri ze
 pract ice
 pr o
 perf orm
 or nament
 mu seum
 mist akes
 m ountain
 li cks
 laugh s
 land s
 lab el
 l ow
 ju dge
 jo ke
 j azz
 imag ine
 ham mer
 grow ing
 g oose
 fr own
 for ward
 fl uffy
 firewor k
 fire place
 fall s
 fa ucet
 env ious
 egg s
 door s
 cro codile
 cre ate
 ch ubby
 ch ase
 ca uliflower
 ca lendar
 bubble s
 bo dy
 big gest
 belong s
 belong ed
 batter y
 b ump
 b et
 answ ered
 an cient
 an chor
 amb ulance
 Z ara
 P e
 K im
 E ven
 Dad dy
  queen
  igloo
z ag
v et
ur ed
ul b
tion ary
rag ile
ract ive
ra ge
p ed
or y
on es
og n
o inted
n ic
n esday
m less
m ined
l ow
k y
k in
il ot
ig zag
ic tionary
ic ine
i pping
he lf
eter mined
el vet
ed nesday
ctor y
ch air
c ome
bb on
b led
ar ian
ang le
ak ing
ac hes
a it
V elvet
, ”
 whist le
 we althy
 wag s
 w ink
 tri ck
 them selves
 the se
 tell s
 t ask
 sw eater
 st age
 sp ent
 she et
 scrat ch
 s ugg
 ro ared
 ri bbon
 rec ogn
 r ug
 pract iced
 pr ay
 po pped
 pic nic
 pe bble
 pass ed
 p ump
 ord inary
 on ce
 no sy
 nice ly
 n umber
 n umb
 met al
 med icine
 me as
 m ild
 m elt
 li fted
 learn ing
 le ash
 kind s
 jump s
 j ail
 in s
 impress ive
 hun g
 ho les
 help s
 har mless
 h ours
 gather ed
 fr o
 flash light
 f ragile
 ed ge
 dist ant
 disapp ointed
 de ar
 d ictionary
 cra b
 cr own
 co l
 circ les
 cabin et
 ca st
 books helf
 b ulb
 att ractive
 arm chair
 ar g
 You r
 W ednesday
 T oby
 T ina
 R ich
 P oppy
 C oco
 C arl
 B ill
t ra
se ct
read y
pp ers
ox y
ll y
l s
l er
iver s
is ted
ir on
ip e
ink y
in es
in arian
if e
ie w
ie f
id dle
i um
i ence
he w
eter inarian
et it
en u
en a
ed ient
ail able
a ul
a ppy
L ittle
J im
 wip e
 way s
 was hed
 w ine
 v iew
 v eterinarian
 tow ers
 tell ing
 t ent
 str ugg
 ste am
 stair s
 st rawberry
 st om
 slid es
 sl ip
 sil ver
 show s
 should er
 sh ade
 se al
 s on
 s ink
 s ent
 ret urn
 rabbit s
 r otten
 pu pp
 pretend ing
 pl ates
 pencil s
 pain ter
 or der
 off ice
 off ered
 ob edient
 numb ers
 music ian
 m iddle
 m enu
 m ass
 loud er
 letter s
 l ed
 know s
 in sect
 hur ry
 hum ble
 hold s
 har sh
 har bor
 grab s
 gl itter
 g um
 firewor ks
 fa ctory
 f le
 excite ment
 ex tra
 e ither
 dream s
 draw er
 does n
 d ish
 d etermined
 cup s
 cost ume
 comp let
 comp etit
 class room
 cla pping
 chicken s
 cast les
 carry ing
 card board
 c udd
 c op
 c one
 c ase
 c ards
 bu ry
 box es
 boat s
 any way
 al ready
 adm ired
 ad or
 a head
 O l
 F r
 B oxy
  Velvet
z en
z ard
y al
x ious
ut er
ur ous
unn el
ul ie
u sh
t ress
s ive
ri c
ric ane
p le
n ed
l ph
j ect
ipp o
in ked
in ation
ic er
h og
g ing
et le
es ted
er ation
en sive
ead y
c orn
c om
bo dy
au sed
ation s
as on
ach t
ac he
a ver
W ait
M r
G o
!" .
 y acht
 wa ving
 val u
 u r
 trou bled
 tri angle
 tight ly
 th ose
 t unnel
 t ug
 stir red
 ste el
 spe ed
 sn iff
 smell s
 shout s
 sho vel
 sh ort
 sh ock
 sh akes
 set tle
 sad ly
 respect ful
 res ist
 rem ove
 qu iz
 pupp et
 prin t
 pre vent
 pour ed
 pop ular
 pop corn
 point s
 play ground
 pe ppers
 pe an
 pack age
 p le
 p ipe
 op eration
 on ion
 o ats
 mod el
 mo ves
 mess age
 meet ing
 mean s
 marble s
 li zard
 l id
 kn ot
 jo kes
 jew el
 ins isted
 hur ricane
 hot el
 hedge hog
 gigg le
 gi ving
 gar age
 free ze
 f og
 exp ensive
 en vel
 en c
 do lph
 disapp eared
 cou ple
 comp uter
 co al
 ch ose
 ch as
 ch ain
 break s
 bre at
 be etle
 b ikes
 arg ue
 an xious
 advent urous
 ador able
 ab ove
 Wh ile
 W ill
 T una
 St e
 Sh aring
 R o
 R ed
 Mr s
 K ing
 D oggy
 Be aver
 B ig
  �
y d
yd ia
x u
xu ry
w as
was her
v is
vis ion
up er
ul er
uff er
u xury
u nd
t en
st air
stair s
r ink
op us
op ter
oop ed
ol og
ol a
ll ip
llip op
l id
lid ay
ivers ity
is ing
ipper y
ic opter
ib i
he ll
g en
f us
em ember
el come
ed y
e on
e a
der n
dd y
d om
ct opus
com fortable
b our
b ies
az ine
at ely
ar ter
ach ine
a v
Y um
Y uck
O w
O uch
Jim my
In side
I s
D id
Bob by
 whisp ered
 we igh
 valu able
 un ite
 un comfortable
 tra vel
 think ing
 thank s
 tele vision
 te ase
 te as
 sw ung
 supp ort
 stud ent
 spray ed
 spill ed
 sp id
 sp ell
 sm arter
 sl ippery
 sk ipped
 sk ip
 shout ing
 should n
 shell s
 sh iver
 sh ip
 ser ve
 ser ious
 s uper
 s uffer
 rep air
 re fused
 ra il
 r uler
 put ting
 po ke
 pick ing
 per m
 pa id
 pa cked
 p ins
 o ctopus
 now here
 mu ddy
 mo dern
 mat tress
 mail man
 mag azine
 m el
 m ask
 lo yal
 lo llipop
 le ak
 l uxury
 k ay
 hurt ing
 ho liday
 her s
 hel icopter
 he at
 h ook
 h ive
 h ippo
 fro zen
 fl ies
 fast est
 fall en
 ear s
 dream ing
 dolph in
 dist ance
 dish washer
 del ight
 craw led
 count ed
 complet e
 com fortable
 close ly
 ce le
 call s
 c ur
 c ord
 c ap
 bl oom
 bl inked
 be ep
 bark ing
 bar ber
 band age
 back pack
 ba bies
 ar t
 ap olog
 air port
 again st
 adm ire
 accident ally
 T illy
 Sh adow
 Ro ver
 P uffy
 M ama
 L oop
 L illy
 L ena
 In stead
 I s
 F ox
 Every where
 Em ily
  iron
  

z or
w eb
w e
ut h
urt ain
ri ll
r ise
qu ake
ph one
or ge
oot er
om ed
ob web
n ger
l p
l o
l ies
im ed
ic hes
ic hell
ichell e
i est
ht ub
her o
et ty
ere al
em and
e orge
ce ed
c u
at ure
an ny
al s
W ill
J enny
Gra ndma
B uddy
A re
 y aw
 wr iting
 we ek
 wall et
 walk s
 wa r
 v room
 tw ist
 truck s
 tri pped
 tre mb
 tr uth
 tr unk
 tick et
 throw s
 tele phone
 tap e
 swing ing
 supp ly
 super hero
 sun set
 sun rise
 stri ke
 stret ched
 stick ers
 step s
 star ed
 sp end
 sl ed
 sk irt
 shr ug
 sh one
 secret s
 sc ooter
 sc old
 sandw iches
 sa ving
 s y
 s udden
 rot ting
 roll ing
 ro d
 real ised
 re f
 ra zor
 ra ised
 ra cing
 r ings
 poem s
 p urse
 p ilot
 p age
 n ur
 monkey s
 meas ured
 mass age
 m achine
 loud ly
 lip s
 lean ed
 l ime
 kay ak
 jelly fish
 je ep
 inc re
 head s
 happen s
 hand le
 ha nger
 gre edy
 gra ce
 gigg led
 gif ted
 fix ing
 fing ers
 ey e
 exp er
 excited ly
 end ed
 enc ou
 earth quake
 d emand
 cu be
 cook ing
 com fort
 coll ect
 che ss
 cand le
 c urtain
 c obweb
 c ereal
 boun ced
 beaut y
 be nd
 bat htub
 banan as
 b urn
 b ur
 av ailable
 any where
 al ive
 ag re
 acorn s
 ac ce
 W ould
 Ste ve
 S p
 S oph
 Ru fus
 R ex
 P aul
 P andy
 N ext
 M ike
 M ichelle
 L ydia
 He re
 He lp
 E nd
 C hew
 B ibi
xt ure
w orm
ver se
us hed
uck ie
t ory
s c
ro d
re c
rec i
pe at
our ite
or ted
or k
op l
n ight
n ey
mb ol
m ed
lo ssy
k ip
iz es
itten s
is on
in ce
im ney
igg ie
i ves
h appy
g ie
ess ert
er opl
er c
ent ion
els ie
ec ted
bb ing
au ra
ast ic
as is
ar ry
ar i
all ey
ag gie
ad ium
ac ked
a ster
S h
R eady
P olly
Good bye
G ive
F r
Dad dy
' d
 z ipping
 z ipper
 y et
 warn ed
 wa ves
 w igg
 v alley
 up stairs
 trust ed
 tri cks
 tr ay
 to ng
 th ick
 te xture
 t ip
 t en
 sy mbol
 sw an
 suc ceed
 student s
 stud ied
 stir ring
 st ones
 st adium
 squee zed
 spo iled
 spark ly
 sp ear
 sor ting
 soft ly
 sniff ed
 sn ugg
 sn ap
 slid ing
 sk ull
 sil ence
 set ting
 sec ond
 saf ari
 ru les
 ru bbed
 repl ace
 rep ly
 rem ain
 re peat
 re ce
 re aches
 pump kin
 pro v
 poin ting
 po ison
 plan es
 pir ates
 pig eon
 pet als
 pe ach
 pare nt
 pan ic
 paint ings
 pa ir
 p ap
 of ten
 o asis
 nur ses
 new sp
 neigh bour
 need le
 neck l
 n avy
 n ature
 moment s
 miss ing
 mar ched
 m asks
 lea ving
 kn ife
 inv ite
 int rod
 hill s
 h unt
 grace ful
 gl ue
 gl ove
 girl s
 fr idge
 forg ave
 follow ing
 fil thy
 feel ings
 fav ourite
 f ed
 exper ience
 exam ine
 ex erc
 en er
 earth worm
 ear ly
 e ast
 drink ing
 discover ed
 disapp ear
 destroy ed
 d essert
 d are
 cross ed
 cou rage
 competit ive
 com f
 col our
 clo set
 che cked
 ch imney
 cand les
 c row
 butterf lies
 bright er
 breat he
 br ush
 bo ard
 bit es
 bag s
 ba a
 b le
 b ent
 att ic
 app reci
 a w
 a eropl
 Z ippy
 W ally
 U nder
 Tr uckie
 S m
 S kip
 Rob o
 O r
 M ittens
 M ay
 M atch
 M ar
 M anny
 L ook
 L izzy
 J ulie
 In ky
 G ood
 G ia
 E lly
 C l
 Bl oom
 B inky
 B iggie
 All y
 A unt
y m
we en
w ards
ve led
v ice
u esday
t t
tt i
t e
st r
st ick
sh ion
s on
ri age
re ct
r ight
oun ce
ou ise
or ch
op s
o ves
nd a
n oon
m ine
m en
m ble
it ched
is hing
ipp in
igg y
if i
i el
he tti
g es
fe e
f fee
f ast
eci ally
ec ause
e f
dd ler
d ed
ax i
at ing
arl ie
ak y
ag hetti
ag ers
ache l
a pping
a by
Y ay
W elcome
M oral
M imi
M ark
L e
J azz
H a
E m
E lla
Bob o
B ella
A ll
. .
' .
 z igzag
 wr it
 wis dom
 whist ling
 wheel s
 w ob
 vill agers
 van ished
 v et
 un pack
 un iversity
 tre mble
 tra veled
 tra il
 torn ado
 tong ue
 to ur
 to ddler
 their s
 the ater
 th umb
 th read
 th ief
 t axi
 t asks
 surpr ises
 sugg ested
 stretch ing
 str ings
 spid er
 sp ike
 sp aghetti
 so il
 snee zed
 sl ap
 shrug ged
 shin ed
 sh ore
 ser ved
 sc ooped
 saf ely
 s ir
 res p
 record ed
 recogn ize
 re ef
 rain y
 pus hing
 proud ly
 pr ide
 plan ted
 pin ch
 perm it
 past el
 pa nda
 p orch
 p ages
 p ad
 old er
 ob ject
 no on
 no body
 newsp aper
 neckl ace
 mo le
 mel on
 mar riage
 man age
 m ice
 m ay
 listen s
 lip stick
 let ting
 la id
 kne es
 kn own
 keep ing
 jog ged
 incre ase
 ign ore
 ide as
 hum an
 hor ses
 hop ing
 her b
 he al
 ha ll
 h ay
 grand son
 glow ing
 gl oves
 gift s
 g ym
 g ust
 g rill
 forg otten
 fold ed
 fl apped
 fa shion
 f et
 ener gy
 dress ed
 demand ed
 delight ed
 del ay
 d uring
 d ive
 cut s
 cri cket
 creat ed
 cra sh
 cra s
 count er
 co ffee
 climb s
 climb ing
 che ck
 chas es
 ch oose
 ch o
 ch ang
 ch ance
 car ing
 c aused
 button s
 bump ed
 bucket s
 break fast
 ble ed
 bl ouse
 bl ood
 bet ween
 bear s
 ban g
 ba king
 ba ked
 b other
 att ach
 al right
 agre es
 after noon
 aeropl ane
 Z ip
 W here
 W ater
 T uesday
 Sp ike
 Sam my
 S andy
 Ru dy
 Ru de
 R ose
 R ay
 Pe pper
 Pe ople
 P ippin
 Ol ive
 No d
 M ill
 L ike
 L aura
 John ny
 Jim my
 It s
 H op
 H ippy
 H arry
 F lossy
 Dan iel
 Ch arlie
 B ow
 B ear
 A b
z zy
w s
w alk
unn ies
und ry
ug sy
tion s
th ank
ter day
t her
ser ve
s it
rm omet
rmomet er
ree ze
re ck
rawber ries
r iger
riger ator
p ted
p oon
p ecially
p are
os ie
op es
om m
omm end
om b
o sed
m other
m and
mand a
l u
l ter
l ook
ke ep
keep er
k a
ir cle
ind e
ile t
ig ail
i ka
i bbit
h ouse
fu se
ff ic
f ant
f ace
ea h
e ked
d ing
cc er
ball s
ara way
ant ly
amp oo
all en
al ph
a id
Yum i
Y eah
The se
S urpr
R ibbit
N ot
Mom o
M ary
M ama
J ill
Gra ndpa
Em ma
 � �
 writ es
 whisp er
 wat ches
 was te
 w reck
 w est
 vis ited
 ur ge
 un happy
 un f
 tremb ling
 train s
 track s
 tra ffic
 tom ato
 to ilet
 to es
 the rmometer
 teas poon
 t ut
 sweet ies
 sur face
 supp osed
 sugg est
 strugg le
 str uck
 stom ach
 sto ve
 st y
 spark led
 sol ved
 so ccer
 sn e
 side walk
 she lter
 sh ot
 sh ampoo
 search ing
 se ats
 scold ed
 sc ri
 sc rew
 sail or
 sa iling
 s ince
 room s
 ring ing
 ri bbit
 reg ret
 ref rigerator
 re verse
 re lease
 re inde
 re fuse
 rag s
 r ushed
 pup il
 pull s
 pudd les
 problem s
 pre pare
 pl astic
 pin ched
 perfect ly
 pedal s
 pean ut
 pe eked
 pat ted
 p ra
 p ort
 off icer
 ob serve
 o y
 o ak
 no vel
 new s
 neighbor s
 ne at
 n one
 myster y
 mov ies
 mouth s
 mat ches
 mar ried
 m all
 load ed
 lion s
 law n
 lands cape
 la undry
 la ser
 la p
 kne el
 kn ob
 kn ight
 jewel ry
 inv it
 inc lu
 in fant
 imag ined
 imag ination
 help er
 hang ing
 hand ed
 h ut
 grand mother
 gr in
 gold en
 gas ped
 frown ed
 fle a
 fl ap
 fis hing
 fall ing
 f u
 f araway
 exerc ise
 es pecially
 envel ope
 ent r
 dog gy
 dis hes
 dis ag
 d ared
 cudd le
 count ing
 comp any
 comf orted
 colour ful
 coll ected
 cla ws
 cl own
 ch irp
 ch allen
 cele br
 catch ing
 car ed
 c ell
 bu zz
 br ings
 boot s
 bit ing
 b unnies
 b omb
 att ached
 apolog ize
 all owed
 ad vice
 act ing
 Z iggy
 Wh ist
 Soph ie
 S ee
 R achel
 M o
 M illy
 Le e
 L ipp
 K ate
 J une
 J essie
 J ason
 I vy
 H oney
 G eorge
 F ifi
 Every thing
 Carl ton
 C ircle
 B ounce
 B etty
 B aby
 Ann e
  ow
  
 
z es
y gen
x ygen
um es
ugg les
ugg age
uck ily
uc tions
t ime
str uctions
red ient
redient s
rect ion
re at
qu are
or se
or ill
orill a
oon s
on n
on ic
onic a
og a
ng th
n e
mer gen
mergen cy
med i
medi ately
m unk
m m
low ers
l a
la imed
k ins
iz ing
iss a
is ty
ip munk
ing redients
ind a
in ing
ill board
if ic
ic key
ic es
ic ers
i ved
ht er
he art
h ood
ff ort
f l
f ied
er o
en ry
em ent
ed s
e ze
c key
b oy
ar nt
ar issa
a ffle
Y oga
W oof
W ith
To day
T eddy
Surpr ise
R u
R emy
R emember
P eter
P enny
N ext
M ickey
M ay
Le o
L ola
Every one
D uring
D ay
C h
B ugsy
B ird
A h
A b
' ?"
 z ero
 you th
 yaw n
 wor th
 wor se
 window s
 win ter
 win ner
 when ever
 what ever
 wh ip
 welc omed
 was hing
 w ound
 w ire
 understand ing
 un l
 tw isty
 tw ir
 tut or
 turn ing
 tra pped
 throw ing
 t ub
 symbol s
 sweet heart
 sunf lowers
 sun light
 sty le
 stre ngth
 stom ped
 steal ing
 stay s
 st rawberries
 splas hing
 spark ling
 sp rink
 sp it
 sp ikes
 sp ade
 sp ace
 sound ed
 sor ted
 so ak
 snugg led
 snow balls
 snee zes
 sn apped
 sign s
 shrink ing
 sho pping
 shiver ing
 shadow s
 sh aking
 scream s
 scrat ched
 scatter ing
 scatter ed
 sal t
 s uit
 s izes
 s imp
 ro ot
 rid es
 rest ore
 resp on
 res c
 remind ed
 reinde er
 rece ived
 rec ommend
 re qu
 ran g
 rain ing
 rain ed
 ra ft
 qu ack
 pull ing
 prov ide
 pret t
 pol ished
 pol ish
 po ss
 ple ased
 play s
 perf ume
 pen s
 pen ny
 pean uts
 pe el
 pe aches
 pan c
 p ies
 our s
 organ ize
 ord ered
 off icers
 o xygen
 o l
 nap kin
 n ut
 n ine
 my self
 mo at
 mark ers
 loop s
 loo se
 listen ing
 light ning
 let s
 le arnt
 laug hter
 l uggage
 kick ing
 jog ging
 introd uce
 in structions
 impress ed
 imp ro
 ignor ed
 hoop s
 ho ckey
 he sit
 he el
 happ ier
 had n
 guess ed
 grow ls
 gr own
 gr ant
 go al
 gen ie
 gear s
 g orilla
 g ain
 frog s
 for t
 for k
 float ing
 fle as
 flap s
 fl ood
 explor ed
 exc laimed
 ex pect
 even ing
 eras ers
 envel opes
 entr ance
 encou rage
 e mergency
 e ffort
 dri ving
 disag reed
 dis cu
 di rection
 deliver ed
 cur led
 cup board
 craw l
 cras hed
 cr unch
 count ry
 cost umes
 col ours
 cho ice
 chair s
 ch ipmunk
 celebr ate
 cat ches
 call ing
 c akes
 by e
 bus es
 break ing
 bre eze
 bl ink
 bell y
 be g
 be amed
 bar rel
 b ones
 b illboard
 att ention
 arri ve
 are a
 ar my
 appreci ate
 applaud ed
 app ear
 answ ers
 ang els
 adm ir
 add ing
 acce pted
 Z igzag
 With out
 Whist ler
 Wh o
 U p
 St rawberry
 St ar
 Sn uggles
 S unny
 S quare
 R osie
 R emember
 Ol iver
 N ot
 M ummy
 M op
 M ina
 M aisy
 M aggie
 Le ave
 L ouise
 L ola
 L ittle
 K elsie
 H orse
 H enry
 H ave
 G erry
 G ary
 Fr eddy
 F or
 Every day
 D ot
 D id
 Cl arissa
 C ow
 Bird ie
 A re
 A manda
  x
  ingredients
  Yumi
” .
z er
y ear
w ork
w h
w ed
ut ter
ust om
ustom er
us hes
uc t
uct antly
uc ked
ub way
u zy
u sed
u ppy
u es
th a
st ers
sc ope
ro scope
ro c
re nder
re ly
r u
r r
r ist
rist m
ristm as
qu ip
quip ment
pl ain
ow s
ot s
ore s
or i
onn ie
on y
omed ay
o ke
n it
nit ure
n aughty
m ory
m are
mare s
lor a
look ing
le ton
l ier
l en
ke leton
iver se
it ion
ist ol
ip s
ip es
ion a
ig ers
ig ate
ific ate
id es
ic tory
ic roscope
ic ing
h ind
g ers
fl akes
f reeze
eth ro
est igate
es ide
ert ificate
ec ture
e ks
e ally
d led
d ged
d am
ch oo
ch o
c ious
be y
b ug
b age
aw k
av id
at a
an s
an es
ack y
a ced
a a
Z oom
You r
U n
T r
T ina
S usie
S low
O ops
M iss
M ike
M aisy
L una
L ulu
L inda
L illy
K ate
I vy
H old
Fr ank
F red
F or
F ine
Day s
D an
Ch irp
Bird y
Be fore
B ad
B aa
?" ,
! '
 � �
 zoom ing
 zoom ed
 yaw ned
 y ucky
 wra pping
 worm s
 wob b
 wis hing
 wink s
 wigg led
 we eds
 water ed
 war ning
 wander ed
 wait s
 wag ging
 wa ist
 w id
 van ish
 v owed
 v ictory
 unt ie
 unl ocked
 unf old
 under ground
 un iverse
 too ls
 to night
 to aster
 teas ing
 t ummy
 t igers
 t ide
 t art
 t ank
 sw itched
 sur round
 sur render
 strugg ling
 stick y
 stick er
 ste ep
 star ting
 st ing
 st are
 st all
 spot s
 some where
 so aring
 so ared
 snow flakes
 sne aky
 slow er
 slow ed
 sk ill
 see ing
 scrat ches
 sc aring
 sad ness
 s ubway
 s omeday
 s keleton
 s ix
 ru sh
 ru le
 ru ining
 roll s
 rock ing
 robot s
 ri p
 rest ing
 respon s
 resc ue
 remind er
 rel uctantly
 rel ief
 record ing
 recogn ized
 ran ger
 ra cc
 r ust
 r ow
 pupil s
 pump kins
 pro ject
 prett ier
 pretend s
 pre cious
 pray ed
 pra ised
 pr ove
 post man
 pol ishing
 po se
 play time
 pl aced
 pin ata
 pe ek
 pattern s
 past ry
 par ade
 pap ers
 pap a
 p ur
 p istol
 p aused
 oy ster
 off er
 o bey
 night mares
 news boy
 nation s
 nap s
 nail s
 n icer
 n apping
 must ache
 mot ion
 med ium
 meas uring
 me mory
 march ing
 man e
 m icroscope
 m ath
 long est
 lo cked
 li e
 lady bug
 l uck
 l ined
 l ecture
 knock s
 kiss es
 jew els
 jet s
 invit ation
 inv estigate
 impro ve
 import ance
 im mediately
 hunt er
 hit s
 his tory
 helmet s
 head ed
 h i
 grow led
 grin ned
 go at
 gar bage
 g ross
 g roc
 fur niture
 fu el
 free zer
 follow s
 float ed
 fl at
 fire men
 field s
 fet ch
 f reed
 f ought
 er ase
 ent ered
 eat en
 eas ily
 ear lier
 eag erly
 e vent
 e quipment
 e cho
 dust y
 driver s
 dress es
 doll house
 discu ss
 disco very
 dinosaur s
 di pped
 d ried
 cudd led
 crunch y
 cre ation
 crack ers
 cool er
 cont ent
 competit ion
 comet s
 com plain
 co pper
 co ats
 chew ing
 chew ed
 chas ing
 chang ing
 cele b
 car ries
 calm ed
 ca ble
 c ustomer
 c ork
 c ertificate
 buzz ing
 bur st
 bur ning
 bu ried
 bright ly
 br ushes
 blue ber
 bleed ing
 bel ieved
 bee f
 barrel s
 bad ly
 ba rely
 b eside
 an n
 ag o
 act ually
 acce pt
 a imed
 a ch
 W ant
 W affle
 U n
 Th ose
 Some one
 S uzy
 S ky
 Ru by
 R alph
 P uppy
 P izza
 P inky
 O w
 O ur
 Mom ma
 Mar tha
 Mar ia
 M onica
 L ori
 L ater
 H ope
 Gra ce
 F lora
 E ventually
 D in
 D avid
 Ch ristmas
 Aunt ie
 Ab by
 A nt
  Yes
  X
   
y th
yth m
w ater
w amp
ver s
ve al
v i
ut ious
utious ly
us ks
us b
usb and
ur ry
ur b
une y
und ay
un es
un ately
umb s
um mer
um ble
ult s
uc ture
uc ed
tern et
t s
t led
ri an
ret end
re s
rat ul
ra ged
r uney
r own
r imp
pp ings
pl ash
p acked
ou ch
ost ing
os en
oph ia
ong ratul
ome one
om as
o ved
o ors
ne ath
m ies
m el
mel ia
iss ion
ish y
ink ling
in ion
igg ing
if ying
if orm
id s
ib il
i ving
i ers
he st
he llo
h urt
h ile
h a
g ive
fort unately
ff les
er k
ention ed
ent y
en se
en gers
ea ked
e ed
d oors
d a
cu se
ck y
ch an
chan ic
cap ed
c lock
c er
c age
av ailable
at ched
ap a
ang les
ang ers
an ation
air y
a bbit
W ould
W atch
T oby
T iny
T illy
Sh rink
S ophia
S omeone
S illy
R ise
R eally
Q u
P oppy
P aul
O ur
O r
O llie
O k
N ever
Mr s
Me ow
M mm
M ina
M ill
M ika
M ar
M aggie
L uckily
K elsie
J ulie
J en
J ason
J ake
H appy
G reat
G et
G eorge
G ary
F irst
E ventually
D ucky
Chirp y
B etty
B ecause
Ab igail
A nn
?" .
? !"
.. .
' ve
" ,
!” .
 z ipped
 yog hurt
 yes terday
 yell ing
 work er
 wobb ling
 wis ely
 wink ing
 win ning
 wigg ly
 wid ened
 white board
 weapon s
 we eks
 we ather
 want ing
 wait er
 wa ffles
 w oof
 w ins
 vo ices
 visit ing
 vend ors
 ur ged
 up side
 under water
 un packed
 un iform
 twir led
 tw in
 tw ice
 tug ged
 trick y
 tremb led
 treasure s
 tr u
 touch ing
 too l
 to ppings
 tim er
 through out
 th orn
 teach ing
 tall er
 t usks
 t une
 t ucked
 t ipped
 sw ooped
 superhero es
 stri kes
 str ucture
 str angers
 store keeper
 sto len
 stick ing
 squirrel s
 squ ishy
 squ as
 sprink les
 spill s
 spid ers
 spend ing
 spark le
 sort s
 sold iers
 so da
 sn eaked
 sn atched
 sn akes
 sled ding
 sl ice
 sl apped
 sk ipping
 sister s
 simp le
 shop keeper
 sh ield
 set tled
 sell ing
 second s
 se wed
 scri bble
 scri bb
 sc ru
 sat is
 sal ty
 sail ors
 s ummer
 s ip
 s igh
 s ense
 rub s
 ru by
 rob in
 roar s
 ro cked
 ro aring
 rh ythm
 requ est
 remain ed
 rem oved
 relax ed
 rece ive
 rec ipes
 reach ing
 re veal
 re le
 rainbow s
 ra ising
 r ats
 qu ite
 puzz les
 purp ose
 puppet s
 punish ment
 prov ided
 pri ce
 press ing
 pr unes
 pow ers
 pot s
 poin ty
 po ses
 po king
 ple asure
 pl enty
 pile s
 phot os
 perm ission
 perform ed
 peace fully
 pe ered
 path s
 pat ience
 past els
 pass engers
 part ies
 panc ake
 pair s
 pad dled
 pack ages
 p ed
 p ause
 p ant
 p alm
 own ed
 out doors
 op inion
 ol ives
 o h
 o dd
 o at
 nest s
 nervous ly
 musician s
 mix ing
 min ute
 me ow
 me chanic
 manag ing
 magn ifying
 m entioned
 m aster
 log s
 load ing
 lo ving
 li ck
 lead s
 l ung
 l ines
 l imes
 kn elt
 king dom
 keep s
 join ing
 jo king
 jo ked
 is n
 introd uced
 inclu ded
 in ternet
 im age
 hum ming
 hop s
 hop es
 hig hest
 hid es
 herb s
 hear ing
 he n
 he ight
 hat ched
 happ iest
 half way
 h usband
 h our
 h itting
 groc ery
 grand ad
 gra bbing
 glitter y
 glass es
 gain ed
 fro ze
 freed om
 fr osting
 forg ives
 foot ball
 float y
 fl utter
 find s
 film s
 fig ured
 feed ing
 fear s
 fam il
 fair ies
 fa sc
 expl anation
 ex it
 every day
 every body
 es caped
 eras ing
 ent ire
 ent er
 elephant s
 echo ed
 eat s
 eas ier
 draw s
 draw n
 dragon s
 dist urb
 display ed
 direction s
 differe n
 dest ination
 design s
 deep er
 decor ations
 decor ating
 decor ated
 dear s
 d ots
 d igging
 d aisy
 creat ing
 cre ations
 craw ling
 cra cks
 cr umbs
 contin ue
 cont ain
 comp le
 color ing
 color ed
 cobweb s
 clap s
 cl ick
 cl erk
 che ers
 chang es
 ch osen
 celeb rated
 cart oons
 can s
 can es
 camp ing
 c ough
 c oug
 c ause
 build ings
 bu dge
 bring ing
 brave ly
 bo om
 blueber ries
 blow ing
 block ing
 bird ie
 bird cage
 beg ged
 bea st
 be at
 bat he
 bal an
 bad ge
 b umpy
 b in
 aw hile
 av o
 arrow s
 apolog ized
 ap art
 amaz ement
 am ount
 alligator s
 ag es
 after wards
 admir ation
 ad ults
 ach ieve
 ac ted
 Yes terday
 When ever
 W elcome
 Un iversity
 Tweet y
 Tweet ie
 To oth
 Th omas
 St ay
 Soph ia
 Somet hing
 Sm ith
 S unday
 S oup
 S orry
 S low
 R onnie
 R eady
 R abbit
 P runey
 P ilot
 P apa
 O ther
 O K
 M oby
 M ika
 M at
 Joe y
 Jo sh
 Good bye
 G ina
 G et
 Fr ank
 Fin ny
 F ollow
 F irst
 F airy
 Din osaur
 Bu zzy
 Be cky
 B rown
 B rian
 B oth
 B ecause
 Ab igail
 A l
 A dam
z oom
y ou
x cuse
wh y
w ra
w he
w are
ven ess
v room
v end
vend er
v ast
vast ated
v al
ut ure
ut ion
ust ed
urt her
ur day
up s
unch ing
um mies
ul pt
ulpt ure
uck led
u zz
u ild
u de
u ation
to ed
t uce
st ri
st and
sp ired
se ek
se ball
s n
sn ap
s m
s ing
rr r
rom ise
ro at
ro ached
riend s
ri os
rios ity
ri lled
ren ch
re verse
rag ing
ra zy
ra ight
r on
que aky
pp les
p om
p ie
pie ce
ous in
oun cing
ou is
or rect
or ed
or der
ook y
ook s
oo ed
ongratul ated
on est
omet imes
om ing
ock y
oc used
o h
o e
nam on
n k
n joy
mb ers
m ly
le e
l ue
l ive
l ings
l ig
lig e
l anes
joy ed
iv ity
itt ered
ither ed
it ude
it ies
it ely
ist ened
ist en
ising ly
is ks
is hes
irth day
ir mly
ink led
in t
in se
in ning
in namon
in ated
im y
ig ning
ig eon
id el
idel ines
ibil ity
ib lings
i veness
i ren
ha usted
gu ing
f ound
f orm
f it
f ire
et y
et ail
ess ion
eros ity
er ve
er n
ent ly
end ant
en ing
en e
en ces
em ies
em b
emb ers
ed ic
ed ding
ec ting
e ep
e ating
e at
e al
d ate
ct ly
ct ion
c al
b ut
b uild
b oo
b ang
az ed
av ors
at urday
as hing
art led
ar ling
ar get
ant astic
ang u
ang led
an an
anan a
amp ered
am med
am bour
am ber
all ing
al y
ad os
ad ly
ad es
ack et
ach ines
aces hip
ac ation
a ved
a ked
a iled
a ctly
Z ippy
Wh iskers
Un fortunately
Un cle
U h
Tr ue
T weet
T ony
St e
Sam my
S wamp
S unny
S plash
S p
S ometimes
S ad
Ru dy
R un
R ose
R ed
R ec
R alph
Qu acky
P ut
P izza
O live
Not hing
N ear
Mom ma
Mar ia
M any
M andy
L ouise
L ena
J ump
J ethro
H urry
H mm
Gra ce
Fr eddy
F riends
F reeze
F iona
E xcuse
E w
E lly
E at
D rink
D oggy
D anger
C oco
C hew
C he
C at
Ben ny
Be ware
Be hind
Be ep
B rrr
B ow
B lue
B ill
B ig
B essie
B ang
B ack
Ab by
A w
A n
A melia
A choo
. '
, '
' ."
! '.
 zebra s
 your selves
 y elp
 wrap s
 work s
 wor n
 wonder s
 wob ble
 wis est
 wip ing
 wip es
 wind y
 whist led
 where ver
 wear s
 we ight
 water s
 was ting
 warn ings
 warm er
 wander ing
 wa kes
 wa ded
 w ife
 w edding
 v ines
 v acation
 us ual
 ur ges
 under neath
 un wra
 un ited
 twist ing
 tw inkling
 tw eet
 tru ly
 trip s
 tri cked
 tri angles
 tr ad
 top s
 to re
 to ne
 tip toed
 tid ying
 ticket s
 tick les
 tick led
 tick le
 thu d
 th roat
 th rilled
 terri fied
 team work
 teac hes
 te ased
 tast iest
 tast es
 ta pping
 t ummies
 t umbled
 t ested
 t arget
 t angled
 t ambour
 swim s
 sweet s
 sw eating
 sw ap
 surround ed
 study ing
 strugg led
 stri ped
 stri p
 street s
 stream ing
 sto le
 ste er
 st ung
 st umble
 st raight
 st itch
 st ern
 st acked
 st able
 squas hes
 square s
 squ awk
 squ aw
 spring ing
 spray ing
 sport s
 spoon s
 spo ken
 speak ing
 sp ooky
 sp at
 sp ades
 sp aceship
 soon er
 somet ime
 sol ving
 soft est
 so re
 so bbed
 snugg les
 snow s
 sniff s
 sne ak
 sn ug
 sn uck
 smooth ly
 sm ash
 sleep s
 sl imy
 sl ammed
 skill s
 sk unk
 sit uation
 sit s
 sing le
 simp ly
 shrug s
 shr ank
 short s
 shop s
 shoot ing
 shirt s
 she lves
 sh ivers
 ser ving
 send ing
 sell er
 seem s
 se ven
 scru bbing
 scribb led
 scream ing
 scratch ing
 scold s
 sc ulpture
 sc oop
 sc ampered
 satis fied
 sail s
 saf ety
 sad der
 sa nk
 sa le
 s iren
 s ings
 s ides
 s idelines
 s iblings
 rust ling
 ru bble
 ru bbing
 ru bb
 rock y
 ri pped
 rest ed
 respons ible
 respons ibility
 resp ond
 res ult
 requ ested
 rem embers
 rele ased
 ref res
 recommend ation
 recogn izing
 rec order
 real izes
 real ize
 re ward
 re un
 rain s
 racc oons
 racc oon
 r owed
 r isks
 r ising
 r inse
 r ap
 quack ing
 qu acked
 puzz led
 pur r
 pu ff
 pres chool
 pract icing
 pra ise
 potato es
 poss ible
 poss ession
 pol itely
 pocket s
 ple as
 play date
 planet s
 plan ned
 pl ug
 pl ain
 perform ers
 peek ing
 ped alling
 pebble s
 pe as
 patient ly
 part s
 par ked
 pant s
 panc akes
 pan s
 paint s
 pad dle
 p ouncing
 p oop
 p om
 p itch
 oy sters
 over joyed
 over head
 over come
 out fit
 organ izing
 open ing
 on wards
 ol ive
 ob lige
 new found
 neighbour hood
 neighbor hood
 near ly
 ne ither
 mush y
 mon sters
 mom ma
 mo ats
 miss ion
 mild er
 mel ted
 me owed
 me mbers
 mat ched
 master piece
 mass ages
 mark s
 m unching
 m ug
 lo cket
 lo cal
 light er
 let tuce
 lemon ade
 learn s
 lead ing
 le ap
 la vender
 l end
 l angu
 knight s
 kneel ed
 kit es
 kind ly
 kick s
 keep er
 k ings
 k ill
 j acket
 iron ed
 invit ations
 interest ed
 ins ist
 ind eed
 incre ased
 inclu de
 in spired
 imag in
 ignor ance
 hur ried
 hunt ers
 hope ful
 hon k
 holiday s
 his ses
 hesit ation
 help ers
 hat e
 hands ome
 hand led
 gu est
 group s
 ground s
 grass y
 got ten
 good night
 glow ed
 gl ued
 gl istened
 gigg ling
 gi ven
 ghost s
 gen erosity
 g lee
 g azed
 g aze
 frown s
 forget ting
 forget s
 forg iving
 fool ed
 flutter ed
 floor s
 fl our
 fl ips
 fl ip
 fl ight
 fl avors
 fl ashing
 fl apping
 fl ames
 fisher men
 fire s
 fire man
 fet ches
 fe ver
 fasc inated
 far ther
 fan s
 famil ies
 fa ult
 fa ct
 f uture
 f urther
 f ocused
 f irmly
 f ile
 f er
 f antastic
 explore r
 expl o
 exerc ising
 ex hausted
 ex actly
 enthusiastic ally
 enjoy ment
 eng ines
 end s
 encou raging
 encou raged
 enc ount
 en emies
 embarra ss
 ed ges
 e ight
 drum s
 drum mer
 drink s
 dri ves
 dream t
 drag ged
 down stairs
 doctor s
 do dged
 do ck
 dish onest
 discover ies
 different ly
 differen ce
 di ving
 di ved
 destroy ing
 des p
 des igning
 des erve
 delay ed
 decor ation
 dec ides
 de vastated
 dan cer
 d ips
 d ied
 d etail
 d arling
 curious ly
 cur ly
 crow d
 crocodile s
 creat ivity
 cream y
 cr ops
 cover s
 cour t
 coug hed
 cop y
 cop ied
 coo ed
 contain er
 cont est
 complet ely
 comple ted
 comp romise
 comfort ing
 comf y
 collect ion
 club house
 cl ues
 circ led
 chirp ed
 cheer ing
 che ek
 challen ging
 challen ges
 challen ge
 ch uckled
 ch ores
 ch illy
 ch at
 ch amber
 cart oon
 cap e
 camp fire
 ca utiously
 c ousin
 c ott
 c orrect
 c oop
 c ongratulated
 c innamon
 c ent
 bury ing
 bump ing
 bulb s
 build ers
 buck les
 buck le
 bright ened
 bri cks
 breat hing
 bra nd
 bra kes
 bow ed
 bott les
 blow s
 bl ushed
 bl ush
 bel t
 bel ow
 beh aved
 beg inning
 beep ed
 bec oming
 be ans
 bathrob es
 bar s
 balan cing
 back wards
 back s
 ba seball
 b orn
 b oo
 b ank
 avoc ados
 avo id
 aunt ie
 att endant
 att em
 att ack
 arg ued
 ar guing
 appreci ation
 app roached
 ap ron
 ann oy
 am used
 agre ement
 af ar
 admir ing
 Z oe
 W ait
 W acky
 Tim e
 The se
 T ony
 T ake
 St artled
 So ck
 Sm oke
 Sm all
 Slow ly
 Sh rimp
 S queaky
 S leep
 S ix
 S ince
 S aturday
 S adly
 Rob e
 R ocky
 P retend
 P lanes
 P igeon
 O ut
 O ff
 N one
 Mat ty
 M ouse
 M andy
 Liz ard
 Le vi
 L ouis
 K ids
 J ethro
 Is n
 I ce
 How ever
 Help ing
 G iant
 Fr oggy
 For g
 F iona
 E njoy
 E ach
 Cl ub
 C lock
 Be ing
 Be hind
 Be fore
 B y
 B ooks
 B irthday
 B anana
 B ally
 Al ways
  ouch
  icing
  Once
” ,
’ .
z ip
z ing
yal ty
y pe
x oph
xoph one
x es
whe l
whel med
whe els
wh ile
wh at
we ed
w o
w im
wim ming
w atch
vers ing
ver ing
ver ber
verber ating
ver ance
vent ion
vention s
ven ir
venir s
v est
v ation
v ant
vant age
uzz les
us ing
urt le
urry ing
urpr isingly
urp le
urn s
urn am
urnam ent
urnament s
urch ase
ur ning
ur ls
ur led
ur ky
und red
undred s
un ked
un ity
un ities
un ches
um ing
um ent
ul ture
ulture s
ul p
ul f
ug s
uff iest
udd led
udd ered
uc umber
u zzy
u se
use ment
u riosity
u ries
u ises
u ess
u dy
udy ing
u dge
u d
to es
th s
th row
throw ing
th rough
th ough
th is
ter s
ter ru
terru pt
t urn
t ree
t iv
tiv ated
t ally
t able
stri ke
stri ch
str ong
str on
stron a
strona uts
stead y
stand ing
st ret
stret ched
st antly
st ac
stac les
ss ible
ss es
squ awk
sp ecially
so l
sol ve
sm ell
smell ing
sm art
sit ive
sh m
shm all
shmall ows
ser y
ser vation
se verance
se qu
sequ ences
se mb
semb led
sc reen
s ued
s id
sid er
s her
s he
s end
s aw
saw s
s aur
ross ed
rom a
rob e
ro zen
ro lled
ro l
ro ken
rill s
ri p
ri ke
ri ek
ri ble
ri bbit
ri ately
ri angle
rewor ks
ret ty
rench ing
rel iable
reed y
ream s
re nt
re ec
reec hed
ray ing
rat ing
rag on
ra p
rap her
ra ck
r us
r umpy
r uit
r op
rop riately
r oof
r is
r in
rin ts
r ily
r igg
rigg le
r ig
rig ued
r anged
r am
ram bled
qu et
qu ered
pt s
pt ing
pp ort
pport unities
pp ear
pl ish
plish ment
pl anes
pid ers
pect ive
pe edy
p rints
p lease
p itched
p an
oy s
ow ing
out s
ous ers
our ed
ound s
oun ced
ou venirs
ou raged
ou quet
ou ched
ou ble
ost ume
os es
ors es
ord ination
ord inary
or ant
oph ies
op ed
oop y
oop ing
ood ed
oo gly
onn a
ongratul ations
ong e
omet s
ome let
omelet te
om plishment
oll ed
ol oured
og rapher
oc ious
ob o
obo dy
o ssible
o or
o kes
o ken
o k
o d
od ies
o ar
ny time
nt ing
ndp are
ndpare nts
nder standing
nd s
nd ition
n other
n o
n ives
n ia
n ect
nect ion
n c
n as
my ard
me ow
m unity
m pting
m mediately
m ates
m ate
m atch
m ade
m achines
m achine
ly ly
ll as
less ing
len ess
led ge
le ction
le as
l utter
l ume
l ost
l ied
l ared
ke nds
j ust
j uries
j ected
izz led
izz as
iv ation
ither s
it ness
it ious
it am
itam ins
ist ory
isk y
isa ppear
is play
is le
is ies
is her
isher man
iron ment
irit s
ire r
ir k
ip ed
ip ation
int erest
interest ing
ind ness
in nia
in et
ill ier
ill e
ille g
illeg al
ile s
il ient
il ence
ign orant
ight ly
ight ing
ight ers
igg led
ig s
ig ion
ig hing
ific ent
ie ves
ident s
ident ly
id ly
id ing
ic t
ic ipation
ic iest
ibil ities
ib ly
i reworks
i our
i king
i ences
i bble
i ar
he ese
he e
ha ft
h ot
h i
h arm
harm ed
get ic
g ic
g h
form ed
fl ict
ff ect
fe at
fa ctory
fa ctor
factor ies
fa ction
fa ced
f un
f s
f ruit
f riend
f ree
f low
f less
f ine
f ind
f ighters
f idently
f er
f ed
f ather
ex cuse
et ed
et ch
etch up
es y
es ome
es haft
erv ice
erri fied
er ving
er ror
er ked
er ies
er gic
er fully
er ced
er ature
er ately
er ate
ep y
ep ed
ep eat
ent ured
ent ive
ent ing
ene ath
end erly
end ed
en nas
el ieve
el ed
edic ted
edic ation
ect angle
ect ac
ectac ular
ec ked
e pper
e kends
e ese
e an
ean while
dd les
d robe
d ling
cu ing
ct ually
com ing
ck ly
ck led
ch ild
cer ned
ceed ed
cc idents
c ut
c urls
c ters
c ream
c ouraged
c oloured
c les
c her
c ert
c ause
c akes
by es
build ing
br own
br ations
boy s
box es
be ep
be ara
beara ble
b ump
b s
b roken
b ly
b it
b elieve
b ecause
av iour
au nting
atter ies
atter ed
ate y
at ted
at ive
at itude
at form
ast ly
ast les
ash ier
as ing
as es
arl ings
ark able
are st
are fully
ard less
ara cters
ar ty
ar s
ar led
ar ked
ar inet
ap table
ap ers
ans formed
ang es
an ted
an ner
an ed
an ced
amp ed
am boo
am age
aly zed
all s
all oped
al ed
ak en
ain s
ail s
ail ors
ag ing
ad y
ad ually
ad s
ad a
a way
a ven
a utiously
a isies
a bly
Z ip
Z igzag
Z iggy
Z ara
Y ummy
Y et
Wh ich
We e
W ild
W hew
W hee
W ant
W ake
W affle
V room
V ery
U se
U p
U nderstanding
U gh
Tr ust
Tr ade
Thank s
Thank fully
Th row
Th ree
T ry
T ree
T ea
T H
TH E
Surpr ised
Ste ve
Ste el
St udying
St rike
St rawberries
St ill
St ar
St and
Sp irits
Sp icy
Sh rimp
Sh outs
Sh ould
Sh oo
Sh adow
See ing
S wimming
S un
S peedy
S oup
S ix
Ru fus
Ru de
Ru by
Rec ord
Rec ommend
R osie
R oof
R onnie
R ob
R oar
R ex
R ain
R achel
Qu ick
P urple
P retty
P retend
P ilot
P ete
P epper
P ass
P andy
On ly
O ver
O ut
No d
Near by
N aughty
N G
Mia ow
Me al
Mar ch
M ove
M other
M onica
M oby
M o
M anny
Le vi
Le ave
L ydia
L izzy
L isten
L ike
L ife
L aura
K ing
K im
K eep
Jo sh
Jo ey
J une
J essie
J erry
J akes
Is n
How ever
Hi ppy
H ope
H op
H oney
H arry
Good night
G uess
G row
G erry
Fr ustrated
Fr og
F ull
F ollow
F lossy
F isherman
F ish
F ifi
F eed
F ar
Em ily
E ek
Dan gerous
D reams
D ot
D og
D isplay
D isappear
D etermined
D eal
D ead
Che ers
Che erfully
Ch oose
C razy
C rack
C ows
C ostume
C ongratulations
C lock
C autiously
C atch
C arl
C ar
B uzzy
B uzz
B oth
B oom
B oo
B ibi
B ear
B all
B aby
B A
BA NG
Aw w
Ah oy
A unt
A pples
A manda
A lly
A lex
A dam
A ctually
? '
? !”.
: "
1 0
.. ."
' ,"
!” ,
!' '
!" ,
! ?",
! ,”
 � �
 zigzag s
 z one
 z innia
 yield ed
 yelp s
 yelp ed
 yell s
 writ er
 wra ppers
 wr itten
 wr ist
 wr inkled
 wound s
 work ers
 wood en
 wonder ing
 wobb ly
 wob bled
 win ked
 wigg le
 wid ening
 who ever
 whe ther
 wh iz
 wh ipped
 wh ine
 were n
 weigh s
 weak er
 we pt
 we ighing
 we ighed
 we ekends
 we bs
 water ing
 was ted
 was her
 warm th
 warm ly
 war drobe
 wal rus
 wa nna
 wa iled
 wa ddles
 w rench
 w ow
 w itness
 w ithers
 w ithered
 vo lume
 visit s
 visit ors
 vi brations
 valu ing
 valley s
 val ued
 v itamins
 v entured
 v ases
 v ain
 use less
 unwra pping
 unwra p
 unt ied
 unt angles
 unpack ing
 unl ike
 uniform s
 unfold ed
 unf urled
 unf air
 un zip
 un steady
 un rolled
 un harmed
 un curls
 un bearable
 un able
 umbre llas
 twist s
 twir ls
 twir l
 tw itched
 tw inkled
 tw igs
 tut ors
 turkey s
 trust s
 trump eter
 tru dged
 treat ed
 travel s
 trad ing
 trad ed
 tr ousers
 tr ophies
 tr ansformed
 tow ered
 tow els
 touc hes
 tong ues
 tomato es
 toast s
 to urnaments
 to tally
 to sses
 to ssed
 tire s
 tie ing
 tid ied
 thorn s
 thin ner
 thankful ness
 th us
 th ugs
 th rill
 th reat
 th ird
 th ieves
 temp ted
 temp erature
 tea pot
 te mpting
 tast ing
 tap s
 tambour ines
 tambour ine
 tall est
 tail s
 table s
 ta pped
 ta ckled
 t ype
 t ying
 t umble
 t ippy
 t ipping
 t inkling
 t error
 t enderly
 t ame
 sy nc
 swims uit
 swim mer
 sweet est
 sweet er
 swan s
 sw ishing
 sw ipes
 sw iped
 sw apping
 surround ings
 surround ing
 surrender ing
 surrender ed
 surpr isingly
 sur faced
 supp orted
 supp lies
 supp lied
 sun screen
 suit able
 suggest s
 succeed ed
 sty les
 stuff ed
 strip s
 stri ct
 stream ers
 str um
 str olled
 str okes
 str oke
 stor my
 stomach s
 stom p
 stern ly
 ste ady
 stay ing
 start led
 st itched
 st ink
 st ings
 st ench
 st ash
 st amped
 st ains
 squee zy
 squee zing
 sque al
 sque aking
 squaw king
 squaw ked
 squas hed
 squ ished
 squ inted
 squ atted
 sprink led
 sprink le
 spray s
 spoon ful
 spo il
 splas hes
 spl itting
 spit s
 spill ing
 speed ing
 spe wed
 spark s
 spark les
 sp onge
 sp ins
 sp ed
 sp ectacular
 sp attered
 sp arked
 sour ce
 sound ly
 sol ution
 sol o
 soft ened
 soap s
 so cks
 so bbing
 so aked
 snugg ly
 snug ly
 snow men
 snow ball
 sneak ers
 snap s
 sn orted
 sn ort
 sn ooping
 sn arled
 smile y
 small est
 sm irk
 sm elt
 sled s
 sled ded
 sl udge
 sl opes
 sl ithered
 sl ipping
 sl ightly
 skirt s
 skin ny
 siren s
 since re
 sil ently
 sight s
 sigh s
 shrink s
 shr unk
 shovel s
 should ers
 sho pped
 shiver ed
 shield ing
 she d
 share s
 sh uddered
 sh riek
 sh own
 sh ooed
 sh ave
 sh all
 sh aky
 sh aken
 set s
 ser vers
 separ ating
 separ ated
 send s
 sel fless
 seek er
 secret ly
 secret ive
 sec ure
 sea weed
 se w
 se ason
 scru bbed
 scribble s
 scribb ling
 screen s
 scoop s
 scare s
 scar ves
 sc urrying
 sc reeched
 sc rambled
 sc ores
 sc ored
 sc ore
 sc ience
 sc ene
 sc ans
 sc anner
 sc aly
 sauce pan
 satis faction
 sandc astles
 salad s
 sack s
 sa xophone
 s owing
 s ouvenirs
 s lyly
 s izzled
 s illier
 s ilk
 s ervice
 rust y
 rust led
 run ner
 rubb ish
 rubb er
 ru in
 round ed
 roll er
 rod s
 rocket s
 road s
 ro yalty
 ro ses
 rip s
 rid er
 ribbon s
 ri pples
 ri pe
 ri ches
 reveal ed
 reun iting
 reun ited
 ret urning
 rest ored
 respon se
 resist s
 resist ing
 resc ued
 res isted
 res ilient
 res cuing
 reply ed
 repl ies
 repeat ing
 remind s
 remember ing
 remain s
 rem arkable
 rele asing
 rel igion
 reinde ers
 reg ardless
 refres hing
 refres hed
 ref lection
 recommend ing
 rec ipe
 real izing
 real ising
 read s
 re versing
 re verberating
 re solve
 re ly
 re jected
 re eled
 re eds
 re build
 re ason
 rap ids
 rap idly
 rail way
 rad ishes
 ra ces
 r isky
 r ises
 r ather
 r aking
 r ake
 quiet ly
 quiet er
 question ed
 queen s
 quarrel ed
 quack s
 qu ench
 purr s
 purp oses
 pur ring
 pur red
 pupp ies
 pump ed
 proud er
 protect or
 protect ive
 protect ion
 prot ecting
 prot ected
 prom ises
 prob ably
 pro ven
 pro ceeded
 print s
 princess es
 prin ted
 pri zed
 pri ckly
 prevent ing
 prett iest
 press es
 present s
 present ed
 present ation
 pre fer
 pr ops
 pr edicted
 pour ing
 poss ibilities
 pol ar
 po ster
 po sitive
 po pping
 pleas ant
 ple ad
 playground s
 play room
 play mates
 plant ing
 plan ning
 pl ucked
 pl ot
 pl atform
 pl ank
 pillow s
 pi erced
 phot ographer
 pet ted
 pers pective
 perform ing
 per severance
 per ched
 pedal ed
 ped dled
 peaceful ness
 pe eped
 pe ak
 pay s
 pay ing
 past ries
 pass ing
 par alyzed
 pant ing
 pain ful
 pad s
 pad dling
 pack ing
 p urchase
 p ulp
 p ounds
 p izzas
 p ecked
 over whelmed
 over flow
 over coming
 over alls
 out stretched
 out smart
 out look
 out ing
 our selves
 or anges
 op tions
 op e
 off ers
 ob stacles
 o strich
 o pportunities
 o ink
 nur sery
 number ed
 notebook s
 not ices
 no ses
 night stand
 night s
 newsp apers
 new est
 net work
 neigh s
 need les
 neckl aces
 ne arest
 nap kins
 n uzzles
 n ibble
 n apped
 n ailed
 must n
 mushroom s
 mum mies
 mot ivation
 mon ument
 mon ths
 mo pping
 mo aned
 miss es
 min eshaft
 met res
 mess es
 melt s
 mel odies
 mean ness
 mean ing
 mean ie
 meal s
 meadow s
 me ows
 mattress es
 matter s
 match ing
 mat s
 mass aging
 mar shmallows
 magn ificent
 m urky
 m unches
 m ound
 m ooed
 m oo
 m itt
 m iles
 m atey
 m ailed
 m achines
 m a
 lunch boxes
 low ers
 low ered
 look out
 long ing
 lollipop s
 load s
 lo sing
 lo ses
 lo lly
 lo dged
 light ing
 lift s
 life less
 lick ing
 libr arian
 li ed
 lesson s
 leop ards
 lean ing
 lead er
 le vers
 le ver
 le ase
 le aking
 langu ages
 langu age
 la kes
 l ush
 l umpy
 l uckily
 l ittered
 l inked
 l imp
 l ily
 knowing ly
 know ledge
 kneel ing
 kne els
 kn ives
 kitten s
 kind est
 kind er
 kill ed
 kay aking
 k etchup
 jump er
 ju iciest
 journey s
 jog ger
 job s
 jam s
 jacket s
 j umbled
 j ug
 j iggled
 j erked
 itch y
 it ches
 island s
 iron ing
 int rigued
 int ended
 insist ing
 incred ibly
 inclu ding
 in ventions
 in terrupt
 in stantly
 in juries
 in ch
 impro ved
 imp ossible
 imagin ative
 imagin able
 imag ining
 imag es
 ignor ing
 ign ition
 how led
 how ever
 hot ter
 horn s
 hor ror
 hor rible
 hon ks
 hon king
 hon ked
 ho vering
 his sed
 hide away
 hid er
 hesit ated
 hesit antly
 hesit ant
 hero es
 hen s
 helpless ly
 heart s
 heart broken
 heal ed
 head ing
 he y
 he aven
 hat es
 hat ch
 hard ly
 har vest
 har sher
 hand made
 hand ful
 hall way
 hair cut
 ha ted
 ha lo
 ha bit
 h undreds
 h uff
 h uddled
 h ooded
 h ire
 h int
 h ike
 gun s
 guest s
 guard ing
 gu ards
 grow ling
 grow l
 groc eries
 green s
 gre y
 gre eted
 grate fully
 grandson s
 grand father
 grand child
 grace fully
 gra ndparents
 gr atitude
 gr anted
 gr adually
 good ness
 good byes
 go bble
 go als
 glitter ing
 glee fully
 gl ittered
 gl iding
 gir ly
 gigg les
 giant s
 gent leness
 gather ing
 garden s
 g rip
 g oogly
 g onna
 g eese
 g awk
 g alloped
 fu zzy
 fu rious
 fright ening
 friendship s
 fox es
 fort s
 forg iveness
 forest s
 fore head
 for ming
 foot prints
 flow ing
 flo ppy
 fle sh
 fl uffiest
 fl own
 fit s
 fire fighters
 fin ishing
 fin ishes
 fin al
 fill s
 fill ing
 figure s
 fi zzy
 fi ves
 fi ery
 fi ber
 fet ched
 fest ive
 fer ris
 fer ocious
 fell ow
 feed s
 fear less
 fe ast
 fashion s
 fasc ination
 far myard
 famil iar
 fa irer
 fa iled
 fa il
 fa ced
 f uming
 f rills
 f ished
 f ame
 extra ordinary
 explor ation
 explo ded
 explo de
 exper iences
 exam ined
 ex pected
 env ironment
 entr anced
 eng ulf
 eng rossed
 ener getic
 encourage ment
 encount ered
 encount er
 en sued
 el ated
 eggs hell
 echo es
 eag le
 each other
 e arn
 dro pping
 drive way
 dri pping
 dri pped
 dri p
 dri fted
 dri ft
 dream ily
 draw ers
 dr oopy
 don key
 dolph ins
 disturb ing
 display s
 disgust ed
 discu ssed
 disag ree
 dis couraged
 din ing
 differen ces
 di aled
 detail s
 dessert s
 desp ite
 desp erately
 design ed
 des ire
 demand s
 demand ing
 delay ing
 dec lared
 de vice
 de feat
 dan gers
 dan ces
 d unked
 d renching
 d itch
 d ip
 d ie
 d enting
 d en
 d edication
 d aunting
 d ates
 d arlings
 d aring
 d amage
 d aisies
 cut est
 curtain s
 cur sed
 cur rent
 cur ls
 cup cakes
 cudd ly
 cudd les
 cu riosity
 crunch iest
 crowd s
 cro aking
 cro aked
 cre pt
 cre epy
 cre aking
 cre ak
 cras hing
 cras hes
 crab s
 cra fted
 cra cked
 cr ouched
 cr ouch
 cow boys
 country side
 coug hing
 cou nts
 cott on
 cott age
 correct ly
 cop ying
 coop erate
 cont rol
 con sider
 con servation
 con sequences
 con quered
 con nection
 con flict
 con fidently
 con cert
 con cerned
 comple ting
 complain ed
 comp ared
 comfort s
 comb s
 comb ed
 com munity
 collar s
 coll ecting
 cold er
 co ordination
 co ndition
 co aster
 clown s
 cloud y
 clo sing
 clo ses
 climb ers
 climb er
 clim ax
 click s
 clean er
 cle aring
 cle ared
 class mate
 cl ue
 cl arinet
 cho pped
 cho ices
 chirp ing
 child hood
 cheap est
 che fs
 che esy
 che eks
 chat ting
 char ity
 char ged
 ch op
 ch in
 ch ief
 ch ats
 ch aracters
 cent re
 cent er
 celebr ation
 celeb rating
 cat cher
 cart wheels
 care s
 cap tivated
 cand ies
 camp ground
 camp ers
 cact i
 ca ution
 ca fe
 c ultures
 c ucumber
 c ores
 c m
 c ashier
 c ages
 buzz ed
 buy s
 buy ing
 but ts
 bush y
 bus iness
 burst s
 bur nt
 bump s
 bro om
 bright est
 breat hed
 bra very
 bra ins
 br uises
 bow s
 boun cy
 boun cing
 bottom s
 bother s
 bother ed
 boo ked
 bo ss
 bo iling
 bo bbed
 blueber ry
 bloom s
 bloom ing
 bloom ed
 blink ing
 ble ats
 blanket s
 bl ues
 bl ub
 bl ast
 bl and
 bl ame
 bl ade
 birthday s
 bird y
 bicy cles
 bend s
 bend ing
 belong ings
 bel ts
 beh aviour
 bec omes
 batter ies
 bath s
 bat hing
 basket ball
 ban ner
 ban ged
 balan ced
 bad ges
 back ward
 ba kes
 ba it
 ba cked
 b unch
 b ouquet
 b ound
 b lessing
 b itten
 b iking
 b erry
 b eneath
 b amboo
 aw oken
 aw oke
 aw esome
 aw are
 aw ake
 avo ided
 attem pts
 attem pted
 attack ing
 attach ing
 att itude
 att entive
 att acked
 as sembled
 art work
 arri ving
 arri ves
 arri val
 ar ranged
 appreci ated
 appl ause
 appear s
 app ropriately
 apolog izes
 any body
 ant icipation
 ant ennas
 annoy ing
 annoy ed
 ann ounced
 ann ounce
 ang rily
 amb itious
 amb ition
 am using
 am usement
 am ong
 along side
 all ows
 all ow
 all ergic
 air planes
 after all
 aeropl anes
 ador ed
 add ition
 ad vantage
 ad aptable
 act s
 ach ieved
 accident s
 acc omplishment
 ac he
 ab ack
 a we
 a stronauts
 a roma
 a isle
 a id
 a ffect
 Who ever
 Whist ling
 W riggle
 W oof
 W ish
 W ild
 W ell
 W atch
 Up on
 Under neath
 Un fortunately
 Tuesday s
 Tr ouble
 Thank s
 T wo
 T urtle
 T urns
 T ry
 T riangle
 T oys
 T errified
 T ell
 T aking
 T ails
 T ag
 Ste el
 Ste ak
 St op
 St ill
 Sp irit
 Sp icy
 Sn ake
 Sm ile
 Sh ow
 See ing
 S wamp
 S urprisingly
 S ure
 S plash
 S piders
 S ir
 S ilence
 S erving
 S eat
 S chool
 S ay
 S ailors
 Ro ar
 R un
 R epeat
 R ectangle
 R eally
 R ain
 Pretend ing
 P raying
 P oor
 P ond
 P arty
 P aper
 On ly
 Off icer
 O val
 O f
 Not hing
 N obody
 N ever
 N ations
 Mat tress
 M ud
 M ove
 M oo
 M eanwhile
 M aking
 Le arn
 L ying
 L uckily
 L ots
 L isten
 L inda
 L ife
 L astly
 K nives
 K indness
 K eep
 I mmediately
 He llo
 He ads
 H orses
 H old
 H istory
 H ippo
 H appy
 Good night
 Go d
 G rumpy
 G reedy
 G reat
 G ently
 Fr og
 Fr ance
 Forg iving
 Forg iveness
 F un
 F rozen
 F ribbit
 F lutter
 F leas
 F ishing
 F ish
 F ireworks
 F ighting
 E specially
 E at
 Do es
 Din ner
 D ragon
 D og
 D eal
 D ay
 Cl ose
 Ch oose
 Ch ina
 Cat ch
 Can ada
 C uriosity
 C ream
 C razy
 C omets
 C heese
 C ars
 C arefully
 B ye
 B ugsy
 B oom
 B atteries
 Al though
 A xes
 A round
 A nytime
 A nother
 A melia
 A ir
 A ccidents
 ' '
 " '
  omelette
  illegal
  Yoga
  Yet
  Quacky
  Okay
  9
  8
  4
  10

   
